{
  "version": "1.0",
  "truncation": null,
  "padding": null,
  "added_tokens": [
    {
      "id": 0,
      "content": "[PAD]",
      "single_word": false,
      "lstrip": false,
      "rstrip": false,
      "normalized": false,
      "special": true
    },
    {
      "id": 1,
      "content": "[UNK]",
      "single_word": false,
      "lstrip": false,
      "rstrip": false,
      "normalized": false,
      "special": true
    },
    {
      "id": 2,
      "content": "[CLS]",
      "single_word": false,
      "lstrip": false,
      "rstrip": false,
      "normalized": false,
      "special": true
    },
    {
      "id": 3,
      "content": "[SEP]",
      "single_word": false,
      "lstrip": false,
      "rstrip": false,
      "normalized": false,
      "special": true
    },
    {
      "id": 4,
      "content": "[MASK]",
      "single_word": false,
      "lstrip": false,
      "rstrip": false,
      "normalized": false,
      "special": true
    }
  ],
  "normalizer": null,
  "pre_tokenizer": {
    "type": "Whitespace"
  },
  "post_processor": null,
  "decoder": null,
  "model": {
    "type": "BPE",
    "dropout": null,
    "unk_token": "[UNK]",
    "continuing_subword_prefix": null,
    "end_of_word_suffix": null,
    "fuse_unk": false,
    "byte_fallback": false,
    "ignore_merges": false,
    "vocab": {
      "[PAD]": 0,
      "[UNK]": 1,
      "[CLS]": 2,
      "[SEP]": 3,
      "[MASK]": 4,
      "!": 5,
      "\"": 6,
      "#": 7,
      "%": 8,
      "'": 9,
      "(": 10,
      ")": 11,
      "*": 12,
      ",": 13,
      "-": 14,
      ".": 15,
      "0": 16,
      "1": 17,
      "2": 18,
      "3": 19,
      "4": 20,
      "5": 21,
      "6": 22,
      "7": 23,
      ":": 24,
      ";": 25,
      "?": 26,
      "@": 27,
      "A": 28,
      "B": 29,
      "C": 30,
      "D": 31,
      "E": 32,
      "F": 33,
      "G": 34,
      "H": 35,
      "I": 36,
      "J": 37,
      "K": 38,
      "L": 39,
      "M": 40,
      "N": 41,
      "O": 42,
      "P": 43,
      "Q": 44,
      "R": 45,
      "S": 46,
      "T": 47,
      "U": 48,
      "V": 49,
      "W": 50,
      "Y": 51,
      "Z": 52,
      "[": 53,
      "]": 54,
      "`": 55,
      "a": 56,
      "b": 57,
      "c": 58,
      "d": 59,
      "e": 60,
      "f": 61,
      "g": 62,
      "h": 63,
      "i": 64,
      "j": 65,
      "k": 66,
      "l": 67,
      "m": 68,
      "n": 69,
      "o": 70,
      "p": 71,
      "q": 72,
      "r": 73,
      "s": 74,
      "t": 75,
      "u": 76,
      "v": 77,
      "w": 78,
      "x": 79,
      "y": 80,
      "z": 81,
      "·": 82,
      "ã": 83,
      "ç": 84,
      "ê": 85,
      "–": 86,
      "—": 87,
      "‘": 88,
      "’": 89,
      "“": 90,
      "”": 91,
      "th": 92,
      "the": 93,
      "an": 94,
      "re": 95,
      "in": 96,
      "ou": 97,
      "ll": 98,
      "ve": 99,
      "and": 100,
      "is": 101,
      "en": 102,
      "or": 103,
      "at": 104,
      "on": 105,
      "ed": 106,
      "to": 107,
      "er": 108,
      "wh": 109,
      "you": 110,
      "of": 111,
      "be": 112,
      "ha": 113,
      "se": 114,
      "st": 115,
      "wi": 116,
      "ing": 117,
      "ar": 118,
      "no": 119,
      "om": 120,
      "he": 121,
      "ay": 122,
      "it": 123,
      "le": 124,
      "they": 125,
      "de": 126,
      "them": 127,
      "for": 128,
      "All": 129,
      "li": 130,
      "ah": 131,
      "ver": 132,
      "Allah": 133,
      "es": 134,
      "not": 135,
      "nd": 136,
      "ir": 137,
      "will": 138,
      "who": 139,
      "as": 140,
      "that": 141,
      "id": 142,
      "ent": 143,
      "im": 144,
      "ow": 145,
      "ly": 146,
      "od": 147,
      "We": 148,
      "And": 149,
      "are": 150,
      "He": 151,
      "ce": 152,
      "we": 153,
      "ch": 154,
      "ut": 155,
      "their": 156,
      "ose": 157,
      "have": 158,
      "gh": 159,
      "ur": 160,
      "fr": 161,
      "un": 162,
      "with": 163,
      "ld": 164,
      "ever": 165,
      "ord": 166,
      "ion": 167,
      "from": 168,
      "sa": 169,
      "do": 170,
      "pr": 171,
      "ght": 172,
      "me": 173,
      "beli": 174,
      "The": 175,
      "al": 176,
      "ad": 177,
      "all": 178,
      "your": 179,
      "Lord": 180,
      "God": 181,
      "those": 182,
      "op": 183,
      "ther": 184,
      "fo": 185,
      "ri": 186,
      "ain": 187,
      "Th": 188,
      "him": 189,
      "so": 190,
      "if": 191,
      "com": 192,
      "ke": 193,
      "ear": 194,
      "su": 195,
      "one": 196,
      "ven": 197,
      "pe": 198,
      "what": 199,
      "whi": 200,
      "ac": 201,
      "sha": 202,
      "am": 203,
      "when": 204,
      "ter": 205,
      "us": 206,
      "but": 207,
      "now": 208,
      "il": 209,
      "ul": 210,
      "tr": 211,
      "ma": 212,
      "ess": 213,
      "said": 214,
      "ong": 215,
      "there": 216,
      "up": 217,
      "shall": 218,
      "ab": 219,
      "ge": 220,
      "which": 221,
      "si": 222,
      "say": 223,
      "gi": 224,
      "has": 225,
      "belie": 226,
      "ast": 227,
      "ment": 228,
      "sh": 229,
      "ould": 230,
      "deed": 231,
      "ople": 232,
      "dis": 233,
      "our": 234,
      "ers": 235,
      "ct": 236,
      "know": 237,
      "go": 238,
      "ost": 239,
      "ard": 240,
      "Wh": 241,
      "gu": 242,
      "fore": 243,
      "thing": 244,
      "br": 245,
      "ca": 246,
      "people": 247,
      "were": 248,
      "man": 249,
      "out": 250,
      "ation": 251,
      "His": 252,
      "then": 253,
      "tru": 254,
      "by": 255,
      "ex": 256,
      "believe": 257,
      "urn": 258,
      "own": 259,
      ".\"": 260,
      "other": 261,
      "ts": 262,
      "ish": 263,
      "aw": 264,
      "They": 265,
      "upon": 266,
      "red": 267,
      "ate": 268,
      "sent": 269,
      "turn": 270,
      "ves": 271,
      "fa": 272,
      "ful": 273,
      "his": 274,
      "ight": 275,
      "ye": 276,
      "fe": 277,
      "pt": 278,
      "sel": 279,
      "this": 280,
      "ind": 281,
      "end": 282,
      "wor": 283,
      "gn": 284,
      "ss": 285,
      "oo": 286,
      "was": 287,
      "ise": 288,
      "af": 289,
      "reat": 290,
      "earth": 291,
      "ag": 292,
      "evers": 293,
      "ne": 294,
      "before": 295,
      "Him": 296,
      "day": 297,
      "gr": 298,
      "te": 299,
      "pro": 300,
      "con": 301,
      "may": 302,
      "any": 303,
      "ous": 304,
      "ev": 305,
      "ham": 306,
      "see": 307,
      "believers": 308,
      "ta": 309,
      "ure": 310,
      "come": 311,
      ").": 312,
      "But": 313,
      "ave": 314,
      "pre": 315,
      "had": 316,
      "ome": 317,
      "good": 318,
      "So": 319,
      "),": 320,
      "Say": 321,
      "ide": 322,
      "ance": 323,
      "ted": 324,
      "use": 325,
      "made": 326,
      "In": 327,
      "my": 328,
      "erc": 329,
      "ily": 330,
      "pl": 331,
      "its": 332,
      "among": 333,
      "ook": 334,
      "Our": 335,
      "thou": 336,
      "whom": 337,
      "It": 338,
      "ble": 339,
      "ward": 340,
      "oun": 341,
      "eng": 342,
      "truth": 343,
      "some": 344,
      "after": 345,
      "tain": 346,
      "esseng": 347,
      "ck": 348,
      "hear": 349,
      "cept": 350,
      "den": 351,
      "llow": 352,
      "ity": 353,
      "ath": 354,
      "down": 355,
      "ho": 356,
      "ill": 357,
      "selves": 358,
      "po": 359,
      "been": 360,
      "every": 361,
      "sign": 362,
      "ire": 363,
      "Then": 364,
      "again": 365,
      "ap": 366,
      "cl": 367,
      "per": 368,
      "right": 369,
      "Day": 370,
      "Mu": 371,
      "et": 372,
      "over": 373,
      "than": 374,
      "ings": 375,
      "unish": 376,
      "did": 377,
      "est": 378,
      "would": 379,
      "only": 380,
      "har": 381,
      "ans": 382,
      "reve": 383,
      "indeed": 384,
      "punish": 385,
      "wr": 386,
      "ant": 387,
      "give": 388,
      "cause": 389,
      "evil": 390,
      "ace": 391,
      "mb": 392,
      "ness": 393,
      "ust": 394,
      "hea": 395,
      "things": 396,
      "hamm": 397,
      "Messeng": 398,
      "can": 399,
      "fear": 400,
      "str": 401,
      "follow": 402,
      "comm": 403,
      "should": 404,
      "guid": 405,
      "ip": 406,
      "nor": 407,
      "ving": 408,
      "war": 409,
      "thee": 410,
      "sure": 411,
      "away": 412,
      "par": 413,
      "If": 414,
      "into": 415,
      "bet": 416,
      "unto": 417,
      "heaven": 418,
      "lo": 419,
      "pray": 420,
      "against": 421,
      ".”": 422,
      "ic": 423,
      "led": 424,
      "qu": 425,
      "You": 426,
      "ple": 427,
      "ser": 428,
      "ship": 429,
      "Muhamm": 430,
      "punishment": 431,
      "surely": 432,
      "Muhammad": 433,
      "Pr": 434,
      "ls": 435,
      "way": 436,
      "whe": 437,
      "make": 438,
      "ach": 439,
      "men": 440,
      "sp": 441,
      "except": 442,
      "Book": 443,
      "her": 444,
      "ive": 445,
      "sou": 446,
      "ty": 447,
      "No": 448,
      "cle": 449,
      "mo": 450,
      "ower": 451,
      "well": 452,
      "given": 453,
      "take": 454,
      "Indeed": 455,
      "ith": 456,
      "most": 457,
      "ud": 458,
      "life": 459,
      "wrong": 460,
      "heavens": 461,
      "Do": 462,
      "My": 463,
      "cre": 464,
      "creat": 465,
      "und": 466,
      "call": 467,
      "even": 468,
      "merc": 469,
      "wat": 470,
      "ence": 471,
      "like": 472,
      "side": 473,
      "When": 474,
      "signs": 475,
      "ci": 476,
      "cer": 477,
      "ies": 478,
      "ack": 479,
      "act": 480,
      "Who": 481,
      "mber": 482,
      "Messenger": 483,
      "For": 484,
      "cri": 485,
      "ses": 486,
      "ask": 487,
      "iful": 488,
      "bring": 489,
      "came": 490,
      "sl": 491,
      "tow": 492,
      "This": 493,
      "about": 494,
      "where": 495,
      "under": 496,
      "deeds": 497,
      "hold": 498,
      "command": 499,
      "part": 500,
      "hand": 501,
      "king": 502,
      "none": 503,
      "ob": 504,
      "stand": 505,
      "let": 506,
      "themselves": 507,
      "ophe": 508,
      "ations": 509,
      "just": 510,
      "reme": 511,
      "return": 512,
      "reward": 513,
      "comp": 514,
      "used": 515,
      "astr": 516,
      "faith": 517,
      "warn": 518,
      "mercy": 519,
      "Mose": 520,
      "might": 521,
      "ange": 522,
      "ated": 523,
      "less": 524,
      "There": 525,
      "self": 526,
      "world": 527,
      "hearts": 528,
      "astray": 529,
      "Moses": 530,
      "As": 531,
      "Ver": 532,
      "dr": 533,
      "ect": 534,
      "fer": 535,
      "oy": 536,
      "power": 537,
      "tim": 538,
      "thr": 539,
      "thy": 540,
      "ised": 541,
      "ene": 542,
      "best": 543,
      "because": 544,
      "able": 545,
      "guide": 546,
      "reveal": 547,
      "Most": 548,
      "Merc": 549,
      "back": 550,
      "co": 551,
      "kind": 552,
      "sin": 553,
      "ants": 554,
      "ren": 555,
      "res": 556,
      "hath": 557,
      "verily": 558,
      "others": 559,
      "Verily": 560,
      "Be": 561,
      "how": 562,
      "long": 563,
      "pat": 564,
      "put": 565,
      "um": 566,
      "wo": 567,
      "bey": 568,
      "hel": 569,
      "ass": 570,
      "ween": 571,
      "unt": 572,
      "tainly": 573,
      "between": 574,
      "created": 575,
      "Fire": 576,
      "au": 577,
      "ep": 578,
      "ject": 579,
      "tre": 580,
      "vi": 581,
      "ought": 582,
      "That": 583,
      "Those": 584,
      "worship": 585,
      "ount": 586,
      "Prophe": 587,
      "clear": 588,
      "water": 589,
      "Know": 590,
      "ak": 591,
      "ra": 592,
      "these": 593,
      "rep": 594,
      "orn": 595,
      "ite": 596,
      "prom": 597,
      "while": 598,
      "many": 599,
      "ase": 600,
      "cr": 601,
      "ious": 602,
      "land": 603,
      "wom": 604,
      "ist": 605,
      "hast": 606,
      "does": 607,
      "disbelievers": 608,
      "ostle": 609,
      "prov": 610,
      "guidance": 611,
      "remember": 612,
      "pati": 613,
      "until": 614,
      "di": 615,
      "obey": 616,
      "ro": 617,
      "ens": 618,
      "set": 619,
      "ction": 620,
      "prayer": 621,
      "Merciful": 622,
      "fir": 623,
      "ither": 624,
      "la": 625,
      "read": 626,
      "ound": 627,
      "forth": 628,
      "save": 629,
      "sub": 630,
      "knows": 631,
      "father": 632,
      "bless": 633,
      "guided": 634,
      "ledge": 635,
      "help": 636,
      ".'": 637,
      "?\"": 638,
      "Al": 639,
      "Us": 640,
      "].": 641,
      "great": 642,
      "ol": 643,
      "spe": 644,
      "tor": 645,
      "two": 646,
      "another": 647,
      "too": 648,
      "wit": 649,
      "hes": 650,
      "form": 651,
      "therein": 652,
      "What": 653,
      "revel": 654,
      "time": 655,
      "revealed": 656,
      "Prophet": 657,
      "):": 658,
      "On": 659,
      "age": 660,
      "bre": 661,
      "eous": 662,
      "fire": 663,
      "god": 664,
      "mit": 665,
      "beside": 666,
      "vers": 667,
      "Thou": 668,
      "disbelieve": 669,
      "knowledge": 670,
      "brought": 671,
      "true": 672,
      "though": 673,
      "soul": 674,
      "certainly": 675,
      "torment": 676,
      "Have": 677,
      "To": 678,
      "Un": 679,
      "el": 680,
      "ey": 681,
      "eve": 682,
      "ice": 683,
      "ild": 684,
      "mis": 685,
      "ort": 686,
      "guard": 687,
      "righteous": 688,
      "--": 689,
      "Your": 690,
      "bur": 691,
      "could": 692,
      "fu": 693,
      "gri": 694,
      "low": 695,
      "never": 696,
      "ws": 697,
      "ones": 698,
      "toward": 699,
      "light": 700,
      "asso": 701,
      "ceive": 702,
      "urre": 703,
      "ions": 704,
      "giving": 705,
      "aste": 706,
      "turned": 707,
      "pleas": 708,
      "understand": 709,
      "associ": 710,
      "Is": 711,
      "Lo": 712,
      "Pe": 713,
      "av": 714,
      "ks": 715,
      "rate": 716,
      "send": 717,
      "ten": 718,
      "tle": 719,
      "ough": 720,
      "ond": 721,
      "become": 722,
      "leave": 723,
      "desi": 724,
      "destr": 725,
      "lig": 726,
      "Hell": 727,
      "unjust": 728,
      "such": 729,
      "acc": 730,
      "saying": 731,
      "bra": 732,
      "better": 733,
      "serv": 734,
      "town": 735,
      "women": 736,
      "witness": 737,
      "AW": 738,
      "Abra": 739,
      "How": 740,
      "Qur": 741,
      "SAW": 742,
      "Wise": 743,
      "dwell": 744,
      "find": 745,
      "gre": 746,
      "gard": 747,
      "ign": 748,
      "night": 749,
      "path": 750,
      "pass": 751,
      "ue": 752,
      "word": 753,
      "rem": 754,
      "belong": 755,
      "unbelievers": 756,
      "soever": 757,
      "keep": 758,
      "show": 759,
      "fav": 760,
      "aught": 761,
      "repent": 762,
      "Abraham": 763,
      "One": 764,
      "gl": 765,
      "hu": 766,
      "ken": 767,
      "pur": 768,
      "ual": 769,
      "thin": 770,
      "hap": 771,
      "stri": 772,
      "ars": 773,
      "here": 774,
      "dev": 775,
      "whose": 776,
      "whoever": 777,
      "Here": 778,
      "patient": 779,
      "revelations": 780,
      "eyes": 781,
      "burden": 782,
      "Me": 783,
      "Re": 784,
      "],": 785,
      "bl": 786,
      "ft": 787,
      "fal": 788,
      "ied": 789,
      "kes": 790,
      "ning": 791,
      "oth": 792,
      "tid": 793,
      "rec": 794,
      "ree": 795,
      "atan": 796,
      "bes": 797,
      "lead": 798,
      "forgive": 799,
      "live": 800,
      "very": 801,
      "doers": 802,
      "suf": 803,
      "whatever": 804,
      "abo": 805,
      "ateful": 806,
      "grateful": 807,
      "apostle": 808,
      "besides": 809,
      "destroy": 810,
      "Ex": 811,
      "Sure": 812,
      "Satan": 813,
      "car": 814,
      "chast": 815,
      "eth": 816,
      "hind": 817,
      "jud": 818,
      "ky": 819,
      "kill": 820,
      "look": 821,
      "moun": 822,
      "ot": 823,
      "pain": 824,
      "sky": 825,
      "reject": 826,
      "vere": 827,
      "ors": 828,
      "toge": 829,
      "nothing": 830,
      "death": 831,
      "lies": 832,
      "without": 833,
      "yourselves": 834,
      "himself": 835,
      "test": 836,
      "poin": 837,
      "everything": 838,
      "cannot": 839,
      "serve": 840,
      "ildren": 841,
      "Hereafter": 842,
      "false": 843,
      "tidings": 844,
      "bestow": 845,
      "mountain": 846,
      "together": 847,
      ".’": 848,
      "Ad": 849,
      "Or": 850,
      "Sha": 851,
      "bid": 852,
      "bene": 853,
      "cor": 854,
      "cast": 855,
      "dou": 856,
      "fast": 857,
      "ga": 858,
      "ged": 859,
      "iz": 860,
      "ms": 861,
      "na": 862,
      "ph": 863,
      "pare": 864,
      "son": 865,
      "she": 866,
      "wise": 867,
      "ory": 868,
      "behind": 869,
      "les": 870,
      "peace": 871,
      "belief": 872,
      "believed": 873,
      "yet": 874,
      "neither": 875,
      "tell": 876,
      "present": 877,
      "place": 878,
      "pos": 879,
      "appoin": 880,
      "Beli": 881,
      "promised": 882,
      "took": 883,
      "Unto": 884,
      "People": 885,
      "servants": 886,
      "Quran": 887,
      "Surely": 888,
      "Br": 889,
      "Had": 890,
      "ait": 891,
      "aid": 892,
      "aim": 893,
      "cess": 894,
      "cour": 895,
      "dom": 896,
      "each": 897,
      "ror": 898,
      "ting": 899,
      "rel": 900,
      "reach": 901,
      "ined": 902,
      "ense": 903,
      "atter": 904,
      "told": 905,
      "off": 906,
      "wear": 907,
      "ched": 908,
      "fru": 909,
      "order": 910,
      "doing": 911,
      "prost": 912,
      "allow": 913,
      "Thus": 914,
      "comes": 915,
      "pture": 916,
      "isement": 917,
      "anything": 918,
      "etc": 919,
      "Messengers": 920,
      "souls": 921,
      "hands": 922,
      "angels": 923,
      "draw": 924,
      "ready": 925,
      "towards": 926,
      "pleased": 927,
      "associate": 928,
      "chastisement": 929,
      "painful": 930,
      "bestowed": 931,
      "mountains": 932,
      "Ch": 933,
      "Res": 934,
      "ail": 935,
      "both": 936,
      "char": 937,
      "done": 938,
      "far": 939,
      "fit": 940,
      "gave": 941,
      "hon": 942,
      "ie": 943,
      "iv": 944,
      "mon": 945,
      "mar": 946,
      "messeng": 947,
      "ner": 948,
      "near": 949,
      "oh": 950,
      "ru": 951,
      "ry": 952,
      "sc": 953,
      "tri": 954,
      "treat": 955,
      "theis": 956,
      "recomp": 957,
      "inf": 958,
      "edi": 959,
      "offer": 960,
      "behold": 961,
      "seen": 962,
      "severe": 963,
      "forgiven": 964,
      "lie": 965,
      "verses": 966,
      "enter": 967,
      "weal": 968,
      "saw": 969,
      "These": 970,
      "ads": 971,
      "ained": 972,
      "ifest": 973,
      "sured": 974,
      "accept": 975,
      "magi": 976,
      "abl": 977,
      "believing": 978,
      "cted": 979,
      "mankind": 980,
      "ished": 981,
      "aware": 982,
      "seek": 983,
      "truthful": 984,
      "harm": 985,
      "love": 986,
      "spend": 987,
      "Forgiving": 988,
      "through": 989,
      "Knower": 990,
      "fathers": 991,
      "speak": 992,
      "full": 993,
      "desires": 994,
      "above": 995,
      "doub": 996,
      "appointed": 997,
      "suredly": 998,
      ".)": 999,
      "..": 1000,
      "?”": 1001,
      "By": 1002,
      "Might": 1003,
      "Phar": 1004,
      "Yet": 1005,
      "aoh": 1006,
      "bit": 1007,
      "ced": 1008,
      "eat": 1009,
      "fact": 1010,
      "igh": 1011,
      "lit": 1012,
      "nation": 1013,
      "old": 1014,
      "pay": 1015,
      "sing": 1016,
      "ware": 1017,
      "receive": 1018,
      "relig": 1019,
      "oup": 1020,
      "ened": 1021,
      "being": 1022,
      "forbid": 1023,
      "verse": 1024,
      "wills": 1025,
      "alone": 1026,
      "already": 1027,
      "ify": 1028,
      "suc": 1029,
      "aces": 1030,
      "term": 1031,
      "asts": 1032,
      "disput": 1033,
      "got": 1034,
      "Why": 1035,
      "brother": 1036,
      "manifest": 1037,
      "news": 1038,
      "group": 1039,
      "prote": 1040,
      "evid": 1041,
      "heart": 1042,
      "hard": 1043,
      "prayers": 1044,
      "creation": 1045,
      "cripture": 1046,
      "commanded": 1047,
      "firm": 1048,
      "first": 1049,
      "urrection": 1050,
      "account": 1051,
      "judge": 1052,
      "Bring": 1053,
      "Resurrection": 1054,
      "Pharaoh": 1055,
      "religion": 1056,
      "Ap": 1057,
      "Ar": 1058,
      "Gr": 1059,
      "Hour": 1060,
      "Nay": 1061,
      "Scripture": 1062,
      "Where": 1063,
      "aves": 1064,
      "ered": 1065,
      "ig": 1066,
      "jo": 1067,
      "joy": 1068,
      "pers": 1069,
      "sers": 1070,
      "spre": 1071,
      "till": 1072,
      "vis": 1073,
      "vir": 1074,
      "inn": 1075,
      "inven": 1076,
      "inform": 1077,
      "ouse": 1078,
      "error": 1079,
      "ste": 1080,
      "stay": 1081,
      "art": 1082,
      "lest": 1083,
      "ided": 1084,
      "ows": 1085,
      "change": 1086,
      "also": 1087,
      "alted": 1088,
      "ally": 1089,
      "sup": 1090,
      "abide": 1091,
      "get": 1092,
      "truly": 1093,
      "grace": 1094,
      "proof": 1095,
      "taken": 1096,
      "ures": 1097,
      "deny": 1098,
      "claim": 1099,
      "establ": 1100,
      "followed": 1101,
      "called": 1102,
      "mighty": 1103,
      "coven": 1104,
      "Knowing": 1105,
      "promise": 1106,
      "blessings": 1107,
      "remind": 1108,
      "human": 1109,
      "think": 1110,
      "destroyed": 1111,
      "prostrate": 1112,
      "messenger": 1113,
      "recompense": 1114,
      "wealth": 1115,
      "spread": 1116,
      ")!": 1117,
      ",\"": 1118,
      "Isl": 1119,
      "Je": 1120,
      "bu": 1121,
      "bed": 1122,
      "bar": 1123,
      "bir": 1124,
      "cur": 1125,
      "ds": 1126,
      "due": 1127,
      "em": 1128,
      "free": 1129,
      "iend": 1130,
      "jinn": 1131,
      "lt": 1132,
      "morn": 1133,
      "rup": 1134,
      "sw": 1135,
      "sun": 1136,
      "swear": 1137,
      "taste": 1138,
      "went": 1139,
      "ze": 1140,
      "thus": 1141,
      "rew": 1142,
      "rest": 1143,
      "ine": 1144,
      "ins": 1145,
      "incre": 1146,
      "enc": 1147,
      "bear": 1148,
      "seiz": 1149,
      "ited": 1150,
      "essa": 1151,
      "irs": 1152,
      "assuredly": 1153,
      "ents": 1154,
      "odu": 1155,
      "children": 1156,
      "uty": 1157,
      "friend": 1158,
      "adise": 1159,
      "rivers": 1160,
      "acious": 1161,
      "ters": 1162,
      "ush": 1163,
      "tract": 1164,
      "thereof": 1165,
      "therefore": 1166,
      "gives": 1167,
      "trust": 1168,
      "awful": 1169,
      "ounty": 1170,
      "hood": 1171,
      "losers": 1172,
      "please": 1173,
      "Noah": 1174,
      "Noble": 1175,
      "more": 1176,
      "slave": 1177,
      "obedi": 1178,
      "grieve": 1179,
      "belongs": 1180,
      "favour": 1181,
      "glad": 1182,
      "falsehood": 1183,
      "Believers": 1184,
      "forgiveness": 1185,
      "forbidden": 1186,
      "Apostle": 1187,
      "supp": 1188,
      "Islam": 1189,
      "\".": 1190,
      ");": 1191,
      "Aware": 1192,
      "Now": 1193,
      "Par": 1194,
      "Se": 1195,
      "ake": 1196,
      "either": 1197,
      "fall": 1198,
      "fic": 1199,
      "hum": 1200,
      "ians": 1201,
      "matter": 1202,
      "os": 1203,
      "ols": 1204,
      "pi": 1205,
      "pen": 1206,
      "pal": 1207,
      "run": 1208,
      "spr": 1209,
      "tend": 1210,
      "uch": 1211,
      "umber": 1212,
      "wis": 1213,
      "wish": 1214,
      "wait": 1215,
      "anted": 1216,
      "reck": 1217,
      "enjoy": 1218,
      "ority": 1219,
      "ater": 1220,
      "ates": 1221,
      "oning": 1222,
      "sess": 1223,
      "still": 1224,
      "ites": 1225,
      "ities": 1226,
      "dered": 1227,
      "desp": 1228,
      "forgot": 1229,
      "liars": 1230,
      "ungrateful": 1231,
      "pra": 1232,
      "prop": 1233,
      "produ": 1234,
      "means": 1235,
      "try": 1236,
      "sight": 1237,
      "disobey": 1238,
      "cts": 1239,
      "guil": 1240,
      "forever": 1241,
      "caused": 1242,
      "manner": 1243,
      "few": 1244,
      "aff": 1245,
      "need": 1246,
      "days": 1247,
      "grant": 1248,
      "conf": 1249,
      "concer": 1250,
      "pres": 1251,
      "preven": 1252,
      "something": 1253,
      "Musa": 1254,
      "wary": 1255,
      "quest": 1256,
      "returned": 1257,
      "throw": 1258,
      "vict": 1259,
      "provide": 1260,
      "patience": 1261,
      "submit": 1262,
      "blessed": 1263,
      "gods": 1264,
      "avail": 1265,
      "Adam": 1266,
      "benefit": 1267,
      "corrup": 1268,
      "paren": 1269,
      "doubt": 1270,
      "Mighty": 1271,
      "little": 1272,
      "single": 1273,
      "protect": 1274,
      "virt": 1275,
      "covenant": 1276,
      "Jews": 1277,
      "Paradise": 1278,
      "concerning": 1279,
      "Com": 1280,
      "Call": 1281,
      "Fir": 1282,
      "Gard": 1283,
      "Jose": 1284,
      "Jud": 1285,
      "Of": 1286,
      "Right": 1287,
      "Sign": 1288,
      "bond": 1289,
      "cal": 1290,
      "ches": 1291,
      "hy": 1292,
      "ich": 1293,
      "list": 1294,
      "mits": 1295,
      "must": 1296,
      "mies": 1297,
      "naught": 1298,
      "oath": 1299,
      "pose": 1300,
      "tou": 1301,
      "tent": 1302,
      "tion": 1303,
      "uous": 1304,
      "want": 1305,
      "”;": 1306,
      "thority": 1307,
      "inv": 1308,
      "inter": 1309,
      "ision": 1310,
      "enance": 1311,
      "stre": 1312,
      "stenance": 1313,
      "ary": 1314,
      "hell": 1315,
      "heed": 1316,
      "heads": 1317,
      "deth": 1318,
      "vert": 1319,
      "arer": 1320,
      "ioned": 1321,
      "doth": 1322,
      "meet": 1323,
      "belied": 1324,
      "open": 1325,
      "soon": 1326,
      "coming": 1327,
      "ears": 1328,
      "sustenance": 1329,
      "aced": 1330,
      "iling": 1331,
      "ult": 1332,
      "trans": 1333,
      "male": 1334,
      "makes": 1335,
      "disbelief": 1336,
      "known": 1337,
      "going": 1338,
      "turns": 1339,
      "work": 1340,
      "new": 1341,
      "plain": 1342,
      "cked": 1343,
      "pocr": 1344,
      "clay": 1345,
      "peri": 1346,
      "commun": 1347,
      "whether": 1348,
      "move": 1349,
      "watch": 1350,
      "times": 1351,
      "sins": 1352,
      "authority": 1353,
      "rather": 1354,
      "provided": 1355,
      "die": 1356,
      "subject": 1357,
      "disbelieved": 1358,
      "Isra": 1359,
      "sends": 1360,
      "gress": 1361,
      "ignor": 1362,
      "passed": 1363,
      "words": 1364,
      "Exalted": 1365,
      "Shall": 1366,
      "possess": 1367,
      "fruits": 1368,
      "theism": 1369,
      "infide": 1370,
      "success": 1371,
      "stead": 1372,
      "birds": 1373,
      "morning": 1374,
      "seized": 1375,
      "reckoning": 1376,
      "guilty": 1377,
      "Joseph": 1378,
      "hypocr": 1379,
      "?'": 1380,
      "Bla": 1381,
      "Cer": 1382,
      "Did": 1383,
      "Even": 1384,
      "House": 1385,
      "Kor": 1386,
      "Mo": 1387,
      "Mon": 1388,
      "Mus": 1389,
      "Path": 1390,
      "Tru": 1391,
      "Ye": 1392,
      "aight": 1393,
      "band": 1394,
      "bount": 1395,
      "bounty": 1396,
      "dri": 1397,
      "dread": 1398,
      "fs": 1399,
      "fle": 1400,
      "flow": 1401,
      "gment": 1402,
      "hou": 1403,
      "hid": 1404,
      "hur": 1405,
      "hop": 1406,
      "ired": 1407,
      "ked": 1408,
      "kno": 1409,
      "last": 1410,
      "lawful": 1411,
      "ned": 1412,
      "number": 1413,
      "otheism": 1414,
      "rat": 1415,
      "rist": 1416,
      "sed": 1417,
      "spo": 1418,
      "ught": 1419,
      "uck": 1420,
      "vain": 1421,
      "wind": 1422,
      "yat": 1423,
      "resp": 1424,
      "oud": 1425,
      "ordered": 1426,
      "ons": 1427,
      "ery": 1428,
      "bea": 1429,
      "sea": 1430,
      "secre": 1431,
      "state": 1432,
      "ark": 1433,
      "around": 1434,
      "def": 1435,
      "des": 1436,
      "dead": 1437,
      "delive": 1438,
      "forgiving": 1439,
      "lims": 1440,
      "whosoever": 1441,
      "asure": 1442,
      "ascri": 1443,
      "weth": 1444,
      "chie": 1445,
      "theirs": 1446,
      "unless": 1447,
      "priv": 1448,
      "believer": 1449,
      "adorn": 1450,
      "admit": 1451,
      "Thr": 1452,
      "iled": 1453,
      "distre": 1454,
      "Which": 1455,
      "exc": 1456,
      "exce": 1457,
      "works": 1458,
      "tered": 1459,
      "evous": 1460,
      "press": 1461,
      "plan": 1462,
      "plot": 1463,
      "whomever": 1464,
      "cks": 1465,
      "poor": 1466,
      "hammed": 1467,
      "qual": 1468,
      "wronged": 1469,
      "wrongdoers": 1470,
      "whereas": 1471,
      "observe": 1472,
      "faithful": 1473,
      "enemy": 1474,
      "tree": 1475,
      "raised": 1476,
      "ornam": 1477,
      "cry": 1478,
      "provision": 1479,
      "divers": 1480,
      "rog": 1481,
      "lame": 1482,
      "helped": 1483,
      "break": 1484,
      "breasts": 1485,
      "guarded": 1486,
      "gardens": 1487,
      "repentance": 1488,
      "devil": 1489,
      "carry": 1490,
      "killed": 1491,
      "rejected": 1492,
      "Christ": 1493,
      "charity": 1494,
      "magici": 1495,
      "fully": 1496,
      "dispute": 1497,
      "Arab": 1498,
      "Gracious": 1499,
      "invent": 1500,
      "stayed": 1501,
      "proofs": 1502,
      "essage": 1503,
      "Islamic": 1504,
      "See": 1505,
      "wisdom": 1506,
      "affli": 1507,
      "parents": 1508,
      "virtuous": 1509,
      "Signs": 1510,
      "transgress": 1511,
      "Israel": 1512,
      "ignorance": 1513,
      "Certainly": 1514,
      "Mohammed": 1515,
      "Monotheism": 1516,
      "Muslims": 1517,
      "houses": 1518,
      "knoweth": 1519,
      "delivered": 1520,
      "distress": 1521,
      "!\"": 1522,
      "Are": 1523,
      "Ayat": 1524,
      "En": 1525,
      "Every": 1526,
      "Fa": 1527,
      "Go": 1528,
      "Last": 1529,
      "Let": 1530,
      "Moo": 1531,
      "Nor": 1532,
      "Said": 1533,
      "ali": 1534,
      "bod": 1535,
      "cli": 1536,
      "care": 1537,
      "dark": 1538,
      "fur": 1539,
      "fam": 1540,
      "fill": 1541,
      "found": 1542,
      "fice": 1543,
      "faces": 1544,
      "ger": 1545,
      "gle": 1546,
      "gone": 1547,
      "hor": 1548,
      "hus": 1549,
      "host": 1550,
      "ian": 1551,
      "ile": 1552,
      "ili": 1553,
      "ick": 1554,
      "knew": 1555,
      "lom": 1556,
      "lay": 1557,
      "lost": 1558,
      "mpt": 1559,
      "ners": 1560,
      "pag": 1561,
      "pure": 1562,
      "pens": 1563,
      "tal": 1564,
      "tong": 1565,
      "tled": 1566,
      "task": 1567,
      "ub": 1568,
      "wer": 1569,
      "waste": 1570,
      "threat": 1571,
      "threw": 1572,
      "anions": 1573,
      "reco": 1574,
      "regard": 1575,
      "remove": 1576,
      "ink": 1577,
      "insp": 1578,
      "inten": 1579,
      "lled": 1580,
      "ander": 1581,
      "encomp": 1582,
      "orious": 1583,
      "ating": 1584,
      "attle": 1585,
      "having": 1586,
      "sec": 1587,
      "seven": 1588,
      "step": 1589,
      "wives": 1590,
      "arn": 1591,
      "arrog": 1592,
      "itan": 1593,
      "ition": 1594,
      "dest": 1595,
      "dear": 1596,
      "dece": 1597,
      "decl": 1598,
      "decre": 1599,
      "depart": 1600,
      "forward": 1601,
      "forged": 1602,
      "lied": 1603,
      "limits": 1604,
      "irit": 1605,
      "willed": 1606,
      "ider": 1607,
      "idols": 1608,
      "entered": 1609,
      "image": 1610,
      "Were": 1611,
      "chose": 1612,
      "utter": 1613,
      "prophe": 1614,
      "mere": 1615,
      "measure": 1616,
      "alty": 1617,
      "food": 1618,
      "foot": 1619,
      "rible": 1620,
      "ific": 1621,
      "kept": 1622,
      "aches": 1623,
      "thered": 1624,
      "sick": 1625,
      "aster": 1626,
      "knowing": 1627,
      "case": 1628,
      "awn": 1629,
      "fair": 1630,
      "female": 1631,
      "ages": 1632,
      "proach": 1633,
      "cond": 1634,
      "cons": 1635,
      "confer": 1636,
      "seem": 1637,
      "prepare": 1638,
      "Solom": 1639,
      "pled": 1640,
      "placed": 1641,
      "denied": 1642,
      "approach": 1643,
      "clo": 1644,
      "ety": 1645,
      "thank": 1646,
      "commit": 1647,
      "ices": 1648,
      "ways": 1649,
      "moon": 1650,
      "mock": 1651,
      "merciful": 1652,
      "certain": 1653,
      "cried": 1654,
      "asked": 1655,
      "slain": 1656,
      "wherein": 1657,
      "oblig": 1658,
      "justice": 1659,
      "warner": 1660,
      "warning": 1661,
      "backs": 1662,
      "Behold": 1663,
      "viol": 1664,
      "settled": 1665,
      "fuge": 1666,
      "grievous": 1667,
      "understanding": 1668,
      "dwellers": 1669,
      "garden": 1670,
      "haply": 1671,
      "burdens": 1672,
      "leaders": 1673,
      "suffer": 1674,
      "apostles": 1675,
      "Shaitan": 1676,
      "gather": 1677,
      "gathered": 1678,
      "course": 1679,
      "tingu": 1680,
      "fruit": 1681,
      "Children": 1682,
      "offering": 1683,
      "magic": 1684,
      "...": 1685,
      "evidence": 1686,
      "reminder": 1687,
      "increase": 1688,
      "ences": 1689,
      "obedient": 1690,
      "piety": 1691,
      "praise": 1692,
      "proper": 1693,
      "prevented": 1694,
      "corruption": 1695,
      "bondmen": 1696,
      "intercess": 1697,
      "hypocrites": 1698,
      "hurt": 1699,
      "hope": 1700,
      "Throne": 1701,
      "excuse": 1702,
      "ornaments": 1703,
      "Christians": 1704,
      "Moosa": 1705,
      "husband": 1706,
      "recogn": 1707,
      "prepared": 1708,
      "Solomon": 1709,
      ")?": 1710,
      ".),": 1711,
      "?’": 1712,
      "Ac": 1713,
      "An": 1714,
      "Dav": 1715,
      "Ge": 1716,
      "Ibr": 1717,
      "Li": 1718,
      "Na": 1719,
      "Never": 1720,
      "Per": 1721,
      "Power": 1722,
      "St": 1723,
      "Tham": 1724,
      "Wo": 1725,
      "Wor": 1726,
      "Will": 1727,
      "ases": 1728,
      "aking": 1729,
      "averse": 1730,
      "bow": 1731,
      "burn": 1732,
      "cing": 1733,
      "cover": 1734,
      "dden": 1735,
      "dust": 1736,
      "duty": 1737,
      "ele": 1738,
      "equal": 1739,
      "fight": 1740,
      "ges": 1741,
      "gul": 1742,
      "hen": 1743,
      "hom": 1744,
      "ieve": 1745,
      "later": 1746,
      "mir": 1747,
      "much": 1748,
      "mult": 1749,
      "pit": 1750,
      "pour": 1751,
      "port": 1752,
      "rain": 1753,
      "tin": 1754,
      "ude": 1755,
      "uct": 1756,
      "ured": 1757,
      "vy": 1758,
      "van": 1759,
      "vin": 1760,
      "var": 1761,
      "wants": 1762,
      "ths": 1763,
      "three": 1764,
      "anci": 1765,
      "ref": 1766,
      "rebe": 1767,
      "restr": 1768,
      "requ": 1769,
      "rejo": 1770,
      "inher": 1771,
      "intent": 1772,
      "oured": 1773,
      "vey": 1774,
      "ener": 1775,
      "eness": 1776,
      "orph": 1777,
      "attract": 1778,
      "ont": 1779,
      "beg": 1780,
      "became": 1781,
      "becomes": 1782,
      "habit": 1783,
      "sees": 1784,
      "ster": 1785,
      "stars": 1786,
      "lem": 1787,
      "least": 1788,
      "left": 1789,
      "dec": 1790,
      "devi": 1791,
      "ahim": 1792,
      "iron": 1793,
      "iring": 1794,
      "idol": 1795,
      "ently": 1796,
      "owed": 1797,
      "lytheis": 1798,
      "ared": 1799,
      "ceal": 1800,
      "chos": 1801,
      "uring": 1802,
      "unaware": 1803,
      "within": 1804,
      "withdraw": 1805,
      "ordained": 1806,
      "same": 1807,
      "safe": 1808,
      "mean": 1809,
      "Their": 1810,
      "along": 1811,
      "Godwary": 1812,
      "rier": 1813,
      "earned": 1814,
      "share": 1815,
      "ample": 1816,
      "usion": 1817,
      "ilgr": 1818,
      "ility": 1819,
      "trave": 1820,
      "making": 1821,
      "therefrom": 1822,
      "thereafter": 1823,
      "ments": 1824,
      "ourselves": 1825,
      "Whom": 1826,
      "brings": 1827,
      "brothers": 1828,
      "wered": 1829,
      "ool": 1830,
      "necks": 1831,
      "tempt": 1832,
      "conside": 1833,
      "convey": 1834,
      "conceal": 1835,
      "anyone": 1836,
      "taught": 1837,
      "play": 1838,
      "someone": 1839,
      "signed": 1840,
      "close": 1841,
      "perceive": 1842,
      "overlook": 1843,
      "thanks": 1844,
      "answer": 1845,
      "answered": 1846,
      "fearing": 1847,
      "stray": 1848,
      "struck": 1849,
      "follows": 1850,
      "followers": 1851,
      "prayed": 1852,
      "ships": 1853,
      "Pro": 1854,
      "sound": 1855,
      "clean": 1856,
      "creatures": 1857,
      "evening": 1858,
      "sides": 1859,
      "partners": 1860,
      "warned": 1861,
      "angel": 1862,
      "Therefore": 1863,
      "worldly": 1864,
      "Ask": 1865,
      "enemies": 1866,
      "guides": 1867,
      "Mercy": 1868,
      "kinds": 1869,
      "resurre": 1870,
      "vice": 1871,
      "roads": 1872,
      "saved": 1873,
      "blessing": 1874,
      "revelation": 1875,
      "Oneness": 1876,
      "righteousness": 1877,
      "Peace": 1878,
      "onder": 1879,
      "desire": 1880,
      "unjustly": 1881,
      "purpose": 1882,
      "patiently": 1883,
      "blis": 1884,
      "name": 1885,
      "Believe": 1886,
      "allowed": 1887,
      "honor": 1888,
      "ield": 1889,
      "tribut": 1890,
      "evidences": 1891,
      "person": 1892,
      "establish": 1893,
      "established": 1894,
      "cursed": 1895,
      "humili": 1896,
      "spring": 1897,
      "touched": 1898,
      "steadfast": 1899,
      "Blaze": 1900,
      "Koran": 1901,
      "bounties": 1902,
      "dreadful": 1903,
      "lasting": 1904,
      "respite": 1905,
      "beauty": 1906,
      "secret": 1907,
      "ascribe": 1908,
      "magician": 1909,
      "family": 1910,
      "talk": 1911,
      "secure": 1912,
      "arrogant": 1913,
      "consider": 1914,
      "mockery": 1915,
      "Gehen": 1916,
      "Ibrahim": 1917,
      "Like": 1918,
      "Thamud": 1919,
      "Woe": 1920,
      "mirac": 1921,
      "lytheists": 1922,
      "chosen": 1923,
      "ilgrimage": 1924,
      "considered": 1925,
      "Gehenna": 1926,
      "!'": 1927,
      "\"(": 1928,
      ")].": 1929,
      ",-": 1930,
      "Aar": 1931,
      "Able": 1932,
      "Fear": 1933,
      "Har": 1934,
      "Jac": 1935,
      "Ma": 1936,
      "Sh": 1937,
      "Str": 1938,
      "Sab": 1939,
      "Some": 1940,
      "Such": 1941,
      "Taste": 1942,
      "Take": 1943,
      "Whe": 1944,
      "Wit": 1945,
      "Word": 1946,
      "Would": 1947,
      "ather": 1948,
      "avert": 1949,
      "bs": 1950,
      "book": 1951,
      "bones": 1952,
      "blame": 1953,
      "cu": 1954,
      "cation": 1955,
      "cend": 1956,
      "cities": 1957,
      "cool": 1958,
      "dif": 1959,
      "date": 1960,
      "drew": 1961,
      "ef": 1962,
      "eas": 1963,
      "ech": 1964,
      "fut": 1965,
      "four": 1966,
      "fits": 1967,
      "gain": 1968,
      "gate": 1969,
      "gush": 1970,
      "hi": 1971,
      "hend": 1972,
      "high": 1973,
      "ier": 1974,
      "iers": 1975,
      "jj": 1976,
      "lf": 1977,
      "ling": 1978,
      "lose": 1979,
      "lad": 1980,
      "lower": 1981,
      "lum": 1982,
      "mor": 1983,
      "mun": 1984,
      "main": 1985,
      "mbr": 1986,
      "mother": 1987,
      "mind": 1988,
      "message": 1989,
      "nar": 1990,
      "nes": 1991,
      "nam": 1992,
      "oc": 1993,
      "ps": 1994,
      "past": 1995,
      "pilgrimage": 1996,
      "qun": 1997,
      "ran": 1998,
      "ris": 1999,
      "rans": 2000,
      "round": 2001,
      "sm": 2002,
      "swi": 2003,
      "sur": 2004,
      "sion": 2005,
      "tw": 2006,
      "tun": 2007,
      "upr": 2008,
      "va": 2009,
      "vall": 2010,
      "wre": 2011,
      "wanted": 2012,
      "xic": 2013,
      "years": 2014,
      "yield": 2015,
      "zing": 2016,
      "regre": 2017,
      "refuge": 2018,
      "regul": 2019,
      "incl": 2020,
      "inhabit": 2021,
      "lly": 2022,
      "ved": 2023,
      "vered": 2024,
      "anded": 2025,
      "ishes": 2026,
      "enough": 2027,
      "attain": 2028,
      "ative": 2029,
      "atory": 2030,
      "tock": 2031,
      "why": 2032,
      "white": 2033,
      "ofit": 2034,
      "beasts": 2035,
      "befall": 2036,
      "stren": 2037,
      "wilt": 2038,
      "arm": 2039,
      "argu": 2040,
      "held": 2041,
      "head": 2042,
      "iting": 2043,
      "itude": 2044,
      "learn": 2045,
      "deceive": 2046,
      "forget": 2047,
      "lict": 2048,
      "living": 2049,
      "liked": 2050,
      "whole": 2051,
      "ash": 2052,
      "asi": 2053,
      "ased": 2054,
      "aside": 2055,
      "asses": 2056,
      "asunder": 2057,
      "idst": 2058,
      "arest": 2059,
      "chan": 2060,
      "chance": 2061,
      "urity": 2062,
      "sake": 2063,
      "sacri": 2064,
      "dost": 2065,
      "profit": 2066,
      "Theirs": 2067,
      "als": 2068,
      "alter": 2069,
      "ality": 2070,
      "although": 2071,
      "advers": 2072,
      "admon": 2073,
      "oppress": 2074,
      "ried": 2075,
      "ainted": 2076,
      "sol": 2077,
      "solem": 2078,
      "ifies": 2079,
      "ified": 2080,
      "comple": 2081,
      "supre": 2082,
      "sudden": 2083,
      "whatsoever": 2084,
      "ams": 2085,
      "tern": 2086,
      "ils": 2087,
      "trol": 2088,
      "thereby": 2089,
      "mention": 2090,
      "shown": 2091,
      "short": 2092,
      "dislike": 2093,
      "disaster": 2094,
      "distingu": 2095,
      "disobedient": 2096,
      "ours": 2097,
      "forefathers": 2098,
      "exis": 2099,
      "failed": 2100,
      "feel": 2101,
      "worst": 2102,
      "negle": 2103,
      "Himself": 2104,
      "grain": 2105,
      "graves": 2106,
      "granted": 2107,
      "teth": 2108,
      "teach": 2109,
      "prolong": 2110,
      "prohi": 2111,
      "confirm": 2112,
      "seeking": 2113,
      "taking": 2114,
      "takes": 2115,
      "prehend": 2116,
      "whomsoever": 2117,
      "ounce": 2118,
      "hearing": 2119,
      "holy": 2120,
      "hoard": 2121,
      "polytheists": 2122,
      "everyone": 2123,
      "apart": 2124,
      "persevere": 2125,
      "harden": 2126,
      "ansed": 2127,
      "writ": 2128,
      "mbly": 2129,
      "strong": 2130,
      "straight": 2131,
      "intoxic": 2132,
      "ications": 2133,
      "quainted": 2134,
      "Prost": 2135,
      "Not": 2136,
      "cleansed": 2137,
      "wrongdoing": 2138,
      "Does": 2139,
      "event": 2140,
      "Whenever": 2141,
      "action": 2142,
      "actions": 2143,
      "Whoever": 2144,
      "cribed": 2145,
      "whereon": 2146,
      "wherever": 2147,
      "companions": 2148,
      "faithless": 2149,
      "lessons": 2150,
      "worlds": 2151,
      "drop": 2152,
      "drink": 2153,
      "throne": 2154,
      "resid": 2155,
      "wolf": 2156,
      "beyond": 2157,
      "treas": 2158,
      "clearly": 2159,
      "replied": 2160,
      "woman": 2161,
      "hasten": 2162,
      "obeys": 2163,
      "greater": 2164,
      "speech": 2165,
      "mission": 2166,
      "guardian": 2167,
      "lightened": 2168,
      "accord": 2169,
      "servant": 2170,
      "dwelling": 2171,
      "remain": 2172,
      "favors": 2173,
      "thine": 2174,
      "haps": 2175,
      "happens": 2176,
      "strike": 2177,
      "striking": 2178,
      "devour": 2179,
      "burdened": 2180,
      "Reme": 2181,
      "record": 2182,
      "recited": 2183,
      "suffice": 2184,
      "abode": 2185,
      "Except": 2186,
      "sons": 2187,
      "posed": 2188,
      "reached": 2189,
      "treaty": 2190,
      "inflict": 2191,
      "accepted": 2192,
      "received": 2193,
      "judgement": 2194,
      "Wherefore": 2195,
      "reminded": 2196,
      "barrier": 2197,
      "swer": 2198,
      "pleasest": 2199,
      "obedience": 2200,
      "fici": 2201,
      "ficent": 2202,
      "humble": 2203,
      "palms": 2204,
      "running": 2205,
      "springs": 2206,
      "despa": 2207,
      "forgotten": 2208,
      "produce": 2209,
      "disobeyed": 2210,
      "needy": 2211,
      "presence": 2212,
      "question": 2213,
      "questioned": 2214,
      "victory": 2215,
      "victorious": 2216,
      "Garden": 2217,
      "Gardens": 2218,
      "Judgment": 2219,
      "calf": 2220,
      "listen": 2221,
      "oaths": 2222,
      "stret": 2223,
      "period": 2224,
      "communications": 2225,
      "subjected": 2226,
      "infidel": 2227,
      "infidels": 2228,
      "Truth": 2229,
      "hidden": 2230,
      "chiefs": 2231,
      "adornment": 2232,
      "Arabic": 2233,
      "body": 2234,
      "darkness": 2235,
      "hosts": 2236,
      "pagans": 2237,
      "tongue": 2238,
      "inspired": 2239,
      "intendeth": 2240,
      "encompass": 2241,
      "steps": 2242,
      "prophet": 2243,
      "pledge": 2244,
      "thankful": 2245,
      "obligatory": 2246,
      "suffering": 2247,
      "David": 2248,
      "Name": 2249,
      "Worship": 2250,
      "homes": 2251,
      "multip": 2252,
      "refuse": 2253,
      "inherit": 2254,
      "resurrected": 2255,
      "miracle": 2256,
      "Aaron": 2257,
      "Jacob": 2258,
      "Whether": 2259,
      "Witness": 2260,
      "mbrance": 2261,
      "valley": 2262,
      "regret": 2263,
      "inhabitants": 2264,
      "streng": 2265,
      "deceived": 2266,
      "solemn": 2267,
      "supreme": 2268,
      "neglect": 2269,
      "',": 2270,
      ",'": 2271,
      ".).": 2272,
      "At": 2273,
      "Bear": 2274,
      "Bene": 2275,
      "Blow": 2276,
      "Bounty": 2277,
      "Can": 2278,
      "Creat": 2279,
      "De": 2280,
      "Daw": 2281,
      "Em": 2282,
      "Ever": 2283,
      "Give": 2284,
      "Ho": 2285,
      "Hand": 2286,
      "Hus": 2287,
      "High": 2288,
      "King": 2289,
      "La": 2290,
      "Light": 2291,
      "Look": 2292,
      "May": 2293,
      "Mut": 2294,
      "Mad": 2295,
      "Mount": 2296,
      "Mary": 2297,
      "Message": 2298,
      "None": 2299,
      "Oft": 2300,
      "Pen": 2301,
      "Punish": 2302,
      "Ru": 2303,
      "Rather": 2304,
      "Sp": 2305,
      "Sam": 2306,
      "Sup": 2307,
      "Shu": 2308,
      "Stock": 2309,
      "Te": 2310,
      "Tu": 2311,
      "With": 2312,
      "Yu": 2313,
      "Yes": 2314,
      "athe": 2315,
      "alike": 2316,
      "airs": 2317,
      "ba": 2318,
      "bo": 2319,
      "bent": 2320,
      "bad": 2321,
      "bath": 2322,
      "bright": 2323,
      "blo": 2324,
      "boy": 2325,
      "bound": 2326,
      "battle": 2327,
      "cha": 2328,
      "ces": 2329,
      "cir": 2330,
      "cent": 2331,
      "cup": 2332,
      "cattle": 2333,
      "du": 2334,
      "dire": 2335,
      "dows": 2336,
      "during": 2337,
      "eye": 2338,
      "eaves": 2339,
      "etern": 2340,
      "fin": 2341,
      "fter": 2342,
      "fil": 2343,
      "fish": 2344,
      "fate": 2345,
      "gar": 2346,
      "gener": 2347,
      "hun": 2348,
      "hill": 2349,
      "house": 2350,
      "ix": 2351,
      "ives": 2352,
      "ibl": 2353,
      "kin": 2354,
      "lu": 2355,
      "lan": 2356,
      "mou": 2357,
      "mand": 2358,
      "mad": 2359,
      "mone": 2360,
      "mend": 2361,
      "mort": 2362,
      "non": 2363,
      "nations": 2364,
      "ove": 2365,
      "ood": 2366,
      "oers": 2367,
      "ored": 2368,
      "pious": 2369,
      "push": 2370,
      "qibl": 2371,
      "rit": 2372,
      "rah": 2373,
      "row": 2374,
      "sis": 2375,
      "sen": 2376,
      "sat": 2377,
      "sto": 2378,
      "sit": 2379,
      "sim": 2380,
      "sil": 2381,
      "sca": 2382,
      "spl": 2383,
      "sper": 2384,
      "squ": 2385,
      "surre": 2386,
      "tched": 2387,
      "uction": 2388,
      "vo": 2389,
      "wa": 2390,
      "wal": 2391,
      "wave": 2392,
      "wings": 2393,
      "wander": 2394,
      "wonder": 2395,
      "ymb": 2396,
      "thous": 2397,
      "thren": 2398,
      "anct": 2399,
      "repe": 2400,
      "recall": 2401,
      "revert": 2402,
      "reaches": 2403,
      "retribut": 2404,
      "resol": 2405,
      "inah": 2406,
      "ination": 2407,
      "intend": 2408,
      "injustice": 2409,
      "ison": 2410,
      "issu": 2411,
      "envy": 2412,
      "orted": 2413,
      "orig": 2414,
      "aters": 2415,
      "attend": 2416,
      "ony": 2417,
      "once": 2418,
      "today": 2419,
      "oft": 2420,
      "bel": 2421,
      "beings": 2422,
      "betake": 2423,
      "bears": 2424,
      "hajj": 2425,
      "separ": 2426,
      "sects": 2427,
      "second": 2428,
      "sembly": 2429,
      "stones": 2430,
      "wife": 2431,
      "arch": 2432,
      "armies": 2433,
      "noon": 2434,
      "omen": 2435,
      "heard": 2436,
      "ital": 2437,
      "lew": 2438,
      "leve": 2439,
      "dep": 2440,
      "deaf": 2441,
      "deta": 2442,
      "determ": 2443,
      "delay": 2444,
      "fortun": 2445,
      "lier": 2446,
      "liar": 2447,
      "lives": 2448,
      "lication": 2449,
      "verted": 2450,
      "nder": 2451,
      "willing": 2452,
      "willeth": 2453,
      "whoso": 2454,
      "asp": 2455,
      "ashes": 2456,
      "assigned": 2457,
      "ascend": 2458,
      "entr": 2459,
      "ented": 2460,
      "imin": 2461,
      "lying": 2462,
      "cere": 2463,
      "cease": 2464,
      "weight": 2465,
      "utiful": 2466,
      "uttered": 2467,
      "front": 2468,
      "unseen": 2469,
      "sal": 2470,
      "dog": 2471,
      "doom": 2472,
      "pract": 2473,
      "proud": 2474,
      "prison": 2475,
      "met": 2476,
      "aded": 2477,
      "advan": 2478,
      "yourself": 2479,
      "ops": 2480,
      "fool": 2481,
      "river": 2482,
      "riches": 2483,
      "Thy": 2484,
      "earlier": 2485,
      "suck": 2486,
      "sult": 2487,
      "superi": 2488,
      "venge": 2489,
      "pet": 2490,
      "acts": 2491,
      "shade": 2492,
      "shame": 2493,
      "shack": 2494,
      "amend": 2495,
      "terror": 2496,
      "terrible": 2497,
      "ulate": 2498,
      "males": 2499,
      "therewith": 2500,
      "thereupon": 2501,
      "abri": 2502,
      "abund": 2503,
      "abase": 2504,
      "six": 2505,
      "sible": 2506,
      "says": 2507,
      "display": 2508,
      "ource": 2509,
      "guage": 2510,
      "guile": 2511,
      "foretime": 2512,
      "exalted": 2513,
      "example": 2514,
      "owned": 2515,
      "ishing": 2516,
      "redu": 2517,
      "face": 2518,
      "fulfil": 2519,
      "fee": 2520,
      "fell": 2521,
      "fect": 2522,
      "feet": 2523,
      "endu": 2524,
      "endure": 2525,
      "working": 2526,
      "worthy": 2527,
      "affair": 2528,
      "nearest": 2529,
      "grow": 2530,
      "teaches": 2531,
      "prove": 2532,
      "proclaim": 2533,
      "concl": 2534,
      "contin": 2535,
      "control": 2536,
      "evild": 2537,
      "cometh": 2538,
      "goodly": 2539,
      "places": 2540,
      "amongst": 2541,
      "ooked": 2542,
      "thought": 2543,
      "deniers": 2544,
      "llowed": 2545,
      "hot": 2546,
      "app": 2547,
      "cloud": 2548,
      "perish": 2549,
      "permission": 2550,
      "perhaps": 2551,
      "rightly": 2552,
      "estim": 2553,
      "punished": 2554,
      "wrath": 2555,
      "wrought": 2556,
      "causes": 2557,
      "canst": 2558,
      "fears": 2559,
      "loves": 2560,
      "loss": 2561,
      "quick": 2562,
      "pleases": 2563,
      "service": 2564,
      "Pra": 2565,
      "achieve": 2566,
      "spirit": 2567,
      "excepting": 2568,
      "wrongfully": 2569,
      "creature": 2570,
      "cries": 2571,
      "bringeth": 2572,
      "slay": 2573,
      "slaves": 2574,
      "whereupon": 2575,
      "partner": 2576,
      "obtain": 2577,
      "standing": 2578,
      "rewards": 2579,
      "company": 2580,
      "compens": 2581,
      "warns": 2582,
      "lessness": 2583,
      "Thereupon": 2584,
      "Assuredly": 2585,
      "drowned": 2586,
      "thrown": 2587,
      "coll": 2588,
      "covered": 2589,
      "kindness": 2590,
      "sincere": 2591,
      "rent": 2592,
      "respe": 2593,
      "helper": 2594,
      "worshipers": 2595,
      "Prophets": 2596,
      "aked": 2597,
      "crimin": 2598,
      "crooked": 2599,
      "iously": 2600,
      "wombs": 2601,
      "div": 2602,
      "settle": 2603,
      "laid": 2604,
      "label": 2605,
      "Alas": 2606,
      "Also": 2607,
      "Almighty": 2608,
      "witnes": 2609,
      "formed": 2610,
      "former": 2611,
      "Whatever": 2612,
      "brethren": 2613,
      "Unseen": 2614,
      "mislead": 2615,
      "mischie": 2616,
      "misfortun": 2617,
      "righteously": 2618,
      "lowest": 2619,
      "pleasure": 2620,
      "pleasures": 2621,
      "associates": 2622,
      "Lot": 2623,
      "destruction": 2624,
      "green": 2625,
      "shows": 2626,
      "favor": 2627,
      "repents": 2628,
      "glor": 2629,
      "pursu": 2630,
      "purify": 2631,
      "purifies": 2632,
      "thinking": 2633,
      "striving": 2634,
      "strikes": 2635,
      "blind": 2636,
      "recite": 2637,
      "judgment": 2638,
      "testify": 2639,
      "beneath": 2640,
      "corre": 2641,
      "game": 2642,
      "charge": 2643,
      "honour": 2644,
      "month": 2645,
      "marks": 2646,
      "marry": 2647,
      "ruined": 2648,
      "tried": 2649,
      "beholders": 2650,
      "groups": 2651,
      "protection": 2652,
      "firmly": 2653,
      "Grace": 2654,
      "join": 2655,
      "joined": 2656,
      "invented": 2657,
      "claimed": 2658,
      "embr": 2659,
      "jinns": 2660,
      "swallow": 2661,
      "encoun": 2662,
      "essages": 2663,
      "friends": 2664,
      "support": 2665,
      "supplication": 2666,
      "penit": 2667,
      "confess": 2668,
      "prescribed": 2669,
      "prevent": 2670,
      "protector": 2671,
      "touch": 2672,
      "streams": 2673,
      "meeting": 2674,
      "possessed": 2675,
      "successful": 2676,
      "Truly": 2677,
      "drive": 2678,
      "flesh": 2679,
      "spoils": 2680,
      "desist": 2681,
      "private": 2682,
      "adorned": 2683,
      "exceed": 2684,
      "observed": 2685,
      "diversion": 2686,
      "affliction": 2687,
      "Faith": 2688,
      "further": 2689,
      "threaten": 2690,
      "threatened": 2691,
      "regarding": 2692,
      "destination": 2693,
      "decree": 2694,
      "decreed": 2695,
      "footsteps": 2696,
      "clothing": 2697,
      "intercession": 2698,
      "excuses": 2699,
      "husbands": 2700,
      "recogniz": 2701,
      "Acquainted": 2702,
      "ancients": 2703,
      "restrained": 2704,
      "intention": 2705,
      "orphans": 2706,
      "attractive": 2707,
      "deviated": 2708,
      "idolater": 2709,
      "travell": 2710,
      "strayed": 2711,
      "Proclaim": 2712,
      "honorable": 2713,
      "humiliated": 2714,
      "Straight": 2715,
      "Sabbath": 2716,
      "easy": 2717,
      "laden": 2718,
      "maintain": 2719,
      "ransom": 2720,
      "swift": 2721,
      "wretched": 2722,
      "regular": 2723,
      "armpit": 2724,
      "changed": 2725,
      "alternation": 2726,
      "adversity": 2727,
      "oppression": 2728,
      "complete": 2729,
      "suddenly": 2730,
      "exists": 2731,
      "teaching": 2732,
      "prolonged": 2733,
      "prohibit": 2734,
      "written": 2735,
      "Prostrate": 2736,
      "residence": 2737,
      "according": 2738,
      "recorded": 2739,
      "sufficeth": 2740,
      "stretch": 2741,
      "infidelity": 2742,
      "inheritance": 2743,
      "neglectful": 2744,
      "Beneficent": 2745,
      "Dawud": 2746,
      "Holy": 2747,
      "Kingdom": 2748,
      "Penalty": 2749,
      "Punishment": 2750,
      "Spirit": 2751,
      "Tell": 2752,
      "Yusuf": 2753,
      "circ": 2754,
      "eavesdrop": 2755,
      "eternally": 2756,
      "language": 2757,
      "money": 2758,
      "qiblah": 2759,
      "ritual": 2760,
      "satis": 2761,
      "split": 2762,
      "surrender": 2763,
      "thousand": 2764,
      "retribution": 2765,
      "origin": 2766,
      "detail": 2767,
      "determined": 2768,
      "practise": 2769,
      "abasement": 2770,
      "evildoers": 2771,
      "compensation": 2772,
      "witnesses": 2773,
      "mischief": 2774,
      "misfortune": 2775,
      "!”": 2776,
      "\";": 2777,
      "\"[": 2778,
      "(*": 2779,
      ")]": 2780,
      ").\"": 2781,
      "**": 2782,
      ",’": 2783,
      ",”": 2784,
      "-)": 2785,
      ".,": 2786,
      ":%": 2787,
      ";-": 2788,
      "Am": 2789,
      "Au": 2790,
      "Abu": 2791,
      "Again": 2792,
      "After": 2793,
      "Best": 2794,
      "Both": 2795,
      "Cre": 2796,
      "Con": 2797,
      "Cast": 2798,
      "Coun": 2799,
      "Cher": 2800,
      "Eg": 2801,
      "Ear": 2802,
      "Equal": 2803,
      "Fo": 2804,
      "Fr": 2805,
      "Flame": 2806,
      "Fasi": 2807,
      "Great": 2808,
      "Hit": 2809,
      "Has": 2810,
      "Ham": 2811,
      "Hath": 2812,
      "Hud": 2813,
      "Hallowed": 2814,
      "IN": 2815,
      "Iblis": 2816,
      "Jes": 2817,
      "Just": 2818,
      "Ka": 2819,
      "Kind": 2820,
      "LO": 2821,
      "Le": 2822,
      "Law": 2823,
      "Men": 2824,
      "Mar": 2825,
      "Mah": 2826,
      "Mun": 2827,
      "Nu": 2828,
      "Pl": 2829,
      "Purity": 2830,
      "Qu": 2831,
      "Qis": 2832,
      "Qarn": 2833,
      "Rel": 2834,
      "Sin": 2835,
      "Sur": 2836,
      "Sac": 2837,
      "Send": 2838,
      "Sub": 2839,
      "Ta": 2840,
      "Tor": 2841,
      "Tod": 2842,
      "UR": 2843,
      "Um": 2844,
      "War": 2845,
      "Way": 2846,
      "Was": 2847,
      "Wait": 2848,
      "Women": 2849,
      "Ya": 2850,
      "Zali": 2851,
      "ai": 2852,
      "afr": 2853,
      "aun": 2854,
      "ald": 2855,
      "aforetime": 2856,
      "bly": 2857,
      "boo": 2858,
      "bla": 2859,
      "big": 2860,
      "bulate": 2861,
      "cou": 2862,
      "che": 2863,
      "cow": 2864,
      "cut": 2865,
      "cil": 2866,
      "chas": 2867,
      "cred": 2868,
      "cise": 2869,
      "coun": 2870,
      "count": 2871,
      "corn": 2872,
      "cows": 2873,
      "ded": 2874,
      "daught": 2875,
      "dawn": 2876,
      "dutiful": 2877,
      "eu": 2878,
      "els": 2879,
      "ease": 2880,
      "fy": 2881,
      "fre": 2882,
      "fed": 2883,
      "fare": 2884,
      "fun": 2885,
      "fts": 2886,
      "fled": 2887,
      "five": 2888,
      "fought": 2889,
      "fla": 2890,
      "fied": 2891,
      "ffs": 2892,
      "fabri": 2893,
      "gs": 2894,
      "gin": 2895,
      "gon": 2896,
      "ging": 2897,
      "gers": 2898,
      "gates": 2899,
      "hed": 2900,
      "hour": 2901,
      "home": 2902,
      "hide": 2903,
      "hated": 2904,
      "hort": 2905,
      "iver": 2906,
      "iation": 2907,
      "iant": 2908,
      "ju": 2909,
      "jour": 2910,
      "knot": 2911,
      "kins": 2912,
      "lk": 2913,
      "lis": 2914,
      "lod": 2915,
      "lord": 2916,
      "lab": 2917,
      "law": 2918,
      "lag": 2919,
      "lted": 2920,
      "lack": 2921,
      "lten": 2922,
      "lory": 2923,
      "luck": 2924,
      "lours": 2925,
      "min": 2926,
      "mer": 2927,
      "mbe": 2928,
      "mut": 2929,
      "mould": 2930,
      "mount": 2931,
      "mmon": 2932,
      "medi": 2933,
      "midst": 2934,
      "mix": 2935,
      "messages": 2936,
      "nat": 2937,
      "nigh": 2938,
      "nounce": 2939,
      "ore": 2940,
      "oid": 2941,
      "oose": 2942,
      "oke": 2943,
      "olive": 2944,
      "pu": 2945,
      "por": 2946,
      "pom": 2947,
      "pes": 2948,
      "ply": 2949,
      "pus": 2950,
      "pard": 2951,
      "panions": 2952,
      "panded": 2953,
      "rid": 2954,
      "rop": 2955,
      "rout": 2956,
      "ration": 2957,
      "rag": 2958,
      "rant": 2959,
      "rated": 2960,
      "rows": 2961,
      "swe": 2962,
      "smo": 2963,
      "shel": 2964,
      "sort": 2965,
      "sions": 2966,
      "symb": 2967,
      "sanct": 2968,
      "slew": 2969,
      "source": 2970,
      "tar": 2971,
      "til": 2972,
      "tight": 2973,
      "ties": 2974,
      "tack": 2975,
      "ues": 2976,
      "ually": 2977,
      "uary": 2978,
      "vast": 2979,
      "vill": 2980,
      "vol": 2981,
      "vail": 2982,
      "vows": 2983,
      "wing": 2984,
      "wage": 2985,
      "wages": 2986,
      "wont": 2987,
      "xed": 2988,
      "ya": 2989,
      "yed": 2990,
      "yone": 2991,
      "ypt": 2992,
      "zak": 2993,
      "thir": 2994,
      "thread": 2995,
      "thood": 2996,
      "ani": 2997,
      "anon": 2998,
      "reth": 2999,
      "reas": 3000,
      "retain": 3001,
      "remit": 3002,
      "restri": 3003,
      "reverse": 3004,
      "refle": 3005,
      "reali": 3006,
      "ining": 3007,
      "inno": 3008,
      "init": 3009,
      "inion": 3010,
      "iness": 3011,
      "inte": 3012,
      "inance": 3013,
      "inking": 3014,
      "inite": 3015,
      "intell": 3016,
      "instead": 3017,
      "lling": 3018,
      "llent": 3019,
      "llious": 3020,
      "vest": 3021,
      "veget": 3022,
      "andered": 3023,
      "ising": 3024,
      "ises": 3025,
      "enced": 3026,
      "orry": 3027,
      "ats": 3028,
      "attent": 3029,
      "attered": 3030,
      "attack": 3031,
      "oned": 3032,
      "erate": 3033,
      "whis": 3034,
      "befit": 3035,
      "befriend": 3036,
      "bearer": 3037,
      "befits": 3038,
      "beheld": 3039,
      "beguile": 3040,
      "befell": 3041,
      "hallowed": 3042,
      "seed": 3043,
      "sever": 3044,
      "seas": 3045,
      "seal": 3046,
      "sect": 3047,
      "sets": 3048,
      "sequ": 3049,
      "secur": 3050,
      "star": 3051,
      "stone": 3052,
      "station": 3053,
      "stud": 3054,
      "story": 3055,
      "stub": 3056,
      "stairs": 3057,
      "wice": 3058,
      "wither": 3059,
      "wipe": 3060,
      "wicked": 3061,
      "widows": 3062,
      "ingrate": 3063,
      "ingrat": 3064,
      "arly": 3065,
      "arri": 3066,
      "aration": 3067,
      "aright": 3068,
      "noble": 3069,
      "heat": 3070,
      "heir": 3071,
      "heare": 3072,
      "heated": 3073,
      "heels": 3074,
      "ayb": 3075,
      "itself": 3076,
      "lease": 3077,
      "legs": 3078,
      "del": 3079,
      "deser": 3080,
      "delight": 3081,
      "deserve": 3082,
      "desc": 3083,
      "deities": 3084,
      "designed": 3085,
      "forsa": 3086,
      "forced": 3087,
      "forbear": 3088,
      "forgives": 3089,
      "forger": 3090,
      "lice": 3091,
      "limit": 3092,
      "liken": 3093,
      "likes": 3094,
      "vern": 3095,
      "iri": 3096,
      "asion": 3097,
      "asil": 3098,
      "iders": 3099,
      "idual": 3100,
      "entle": 3101,
      "entice": 3102,
      "impur": 3103,
      "import": 3104,
      "immort": 3105,
      "impu": 3106,
      "owess": 3107,
      "Hearer": 3108,
      "ceed": 3109,
      "weigh": 3110,
      "choose": 3111,
      "ute": 3112,
      "uted": 3113,
      "ution": 3114,
      "utmost": 3115,
      "utters": 3116,
      "urge": 3117,
      "unfa": 3118,
      "unble": 3119,
      "unity": 3120,
      "untrue": 3121,
      "unbelief": 3122,
      "unknown": 3123,
      "unlawful": 3124,
      "lded": 3125,
      "everlasting": 3126,
      "ionate": 3127,
      "savi": 3128,
      "sacred": 3129,
      "prin": 3130,
      "pron": 3131,
      "price": 3132,
      "prieve": 3133,
      "prowess": 3134,
      "meth": 3135,
      "alt": 3136,
      "always": 3137,
      "aloft": 3138,
      "adv": 3139,
      "adul": 3140,
      "advice": 3141,
      "added": 3142,
      "folly": 3143,
      "folk": 3144,
      "folded": 3145,
      "riv": 3146,
      "sooth": 3147,
      "comb": 3148,
      "compl": 3149,
      "comprehend": 3150,
      "key": 3151,
      "earn": 3152,
      "summon": 3153,
      "acy": 3154,
      "acing": 3155,
      "accompl": 3156,
      "shared": 3157,
      "shalt": 3158,
      "shapes": 3159,
      "amidst": 3160,
      "ambulate": 3161,
      "whence": 3162,
      "tery": 3163,
      "using": 3164,
      "usive": 3165,
      "ilt": 3166,
      "magn": 3167,
      "malice": 3168,
      "thereat": 3169,
      "aby": 3170,
      "ably": 3171,
      "abol": 3172,
      "gest": 3173,
      "sive": 3174,
      "sayer": 3175,
      "asted": 3176,
      "mentioned": 3177,
      "shining": 3178,
      "disbelieving": 3179,
      "disgrace": 3180,
      "disbeliever": 3181,
      "distin": 3182,
      "disliked": 3183,
      "gold": 3184,
      "foreheads": 3185,
      "branded": 3186,
      "capture": 3187,
      "peoples": 3188,
      "maneu": 3189,
      "mansions": 3190,
      "outmaneu": 3191,
      "expe": 3192,
      "excl": 3193,
      "exist": 3194,
      "exchange": 3195,
      "exem": 3196,
      "extract": 3197,
      "extend": 3198,
      "expose": 3199,
      "explain": 3200,
      "express": 3201,
      "exhor": 3202,
      "extingu": 3203,
      "exposed": 3204,
      "exclaimed": 3205,
      "exhort": 3206,
      "expanded": 3207,
      "believes": 3208,
      "believeth": 3209,
      "ownselves": 3210,
      "isher": 3211,
      "turning": 3212,
      "fail": 3213,
      "fairs": 3214,
      "fulfill": 3215,
      "ighty": 3216,
      "yellow": 3217,
      "feed": 3218,
      "fered": 3219,
      "fellow": 3220,
      "feasi": 3221,
      "females": 3222,
      "indiv": 3223,
      "worth": 3224,
      "worse": 3225,
      "washed": 3226,
      "afar": 3227,
      "affairs": 3228,
      "agree": 3229,
      "agony": 3230,
      "ney": 3231,
      "nearer": 3232,
      "grap": 3233,
      "grants": 3234,
      "ground": 3235,
      "gracious": 3236,
      "teous": 3237,
      "procl": 3238,
      "prosper": 3239,
      "contempt": 3240,
      "consult": 3241,
      "mayest": 3242,
      "seeing": 3243,
      "tales": 3244,
      "taqun": 3245,
      "preci": 3246,
      "predetermined": 3247,
      "precise": 3248,
      "Soon": 3249,
      "Saying": 3250,
      "idea": 3251,
      "plant": 3252,
      "afterward": 3253,
      "afternoon": 3254,
      "hears": 3255,
      "ception": 3256,
      "downpour": 3257,
      "ires": 3258,
      "approv": 3259,
      "apparen": 3260,
      "apprehend": 3261,
      "clan": 3262,
      "perverted": 3263,
      "perception": 3264,
      "overtook": 3265,
      "overflow": 3266,
      "harvest": 3267,
      "write": 3268,
      "givest": 3269,
      "heavy": 3270,
      "shouldst": 3271,
      "surety": 3272,
      "parted": 3273,
      "party": 3274,
      "parable": 3275,
      "loose": 3276,
      "lote": 3277,
      "icing": 3278,
      "qub": 3279,
      "que": 3280,
      "quar": 3281,
      "quire": 3282,
      "quake": 3283,
      "plead": 3284,
      "menstr": 3285,
      "herald": 3286,
      "sought": 3287,
      "Nothing": 3288,
      "cleft": 3289,
      "mocked": 3290,
      "mosqu": 3291,
      "molten": 3292,
      "wells": 3293,
      "taketh": 3294,
      "uded": 3295,
      "uding": 3296,
      "creed": 3297,
      "create": 3298,
      "creating": 3299,
      "likewise": 3300,
      "Whoso": 3301,
      "Whosoever": 3302,
      "bringest": 3303,
      "slaught": 3304,
      "slander": 3305,
      "whereof": 3306,
      "wherewith": 3307,
      "wherefore": 3308,
      "whereby": 3309,
      "holds": 3310,
      "commandment": 3311,
      "parties": 3312,
      "handful": 3313,
      "kingship": 3314,
      "object": 3315,
      "remembrance": 3316,
      "remembe": 3317,
      "returning": 3318,
      "rewarded": 3319,
      "compan": 3320,
      "compass": 3321,
      "warnings": 3322,
      "mightier": 3323,
      "Thereafter": 3324,
      "Assembly": 3325,
      "dry": 3326,
      "guideth": 3327,
      "reveals": 3328,
      "colours": 3329,
      "coats": 3330,
      "kindred": 3331,
      "sinful": 3332,
      "rendered": 3333,
      "Before": 3334,
      "longer": 3335,
      "patr": 3336,
      "umph": 3337,
      "umrah": 3338,
      "umambulate": 3339,
      "woe": 3340,
      "assist": 3341,
      "createdest": 3342,
      "eped": 3343,
      "trees": 3344,
      "tread": 3345,
      "tresp": 3346,
      "tremend": 3347,
      "Prophethood": 3348,
      "Knowledge": 3349,
      "repaid": 3350,
      "crops": 3351,
      "landmarks": 3352,
      "hastened": 3353,
      "divis": 3354,
      "roof": 3355,
      "road": 3356,
      "rock": 3357,
      "ensed": 3358,
      "ctions": 3359,
      "helpers": 3360,
      "].’": 3361,
      "speaking": 3362,
      "breaking": 3363,
      "breathe": 3364,
      "Unbelief": 3365,
      "else": 3366,
      "mistake": 3367,
      "misdeeds": 3368,
      "guards": 3369,
      "grip": 3370,
      "grief": 3371,
      "lightning": 3372,
      "associated": 3373,
      "avan": 3374,
      "avoid": 3375,
      "sending": 3376,
      "ondent": 3377,
      "desired": 3378,
      "towns": 3379,
      "witnessed": 3380,
      "dweller": 3381,
      "dwellings": 3382,
      "grew": 3383,
      "greet": 3384,
      "remained": 3385,
      "belonged": 3386,
      "keeping": 3387,
      "showed": 3388,
      "glory": 3389,
      "purchas": 3390,
      "happen": 3391,
      "devised": 3392,
      "Recall": 3393,
      "Refuge": 3394,
      "blown": 3395,
      "black": 3396,
      "reciting": 3397,
      "forgiveth": 3398,
      "suffici": 3399,
      "Extract": 3400,
      "carried": 3401,
      "caravan": 3402,
      "looks": 3403,
      "looked": 3404,
      "otion": 3405,
      "tested": 3406,
      "benefits": 3407,
      "corch": 3408,
      "castles": 3409,
      "double": 3410,
      "telling": 3411,
      "presented": 3412,
      "position": 3413,
      "appoint": 3414,
      "Brasil": 3415,
      "relate": 3416,
      "related": 3417,
      "reluct": 3418,
      "relented": 3419,
      "offspring": 3420,
      "weary": 3421,
      "honored": 3422,
      "months": 3423,
      "messengers": 3424,
      "ruins": 3425,
      "sche": 3426,
      "scatter": 3427,
      "scattered": 3428,
      "triumph": 3429,
      "treated": 3430,
      "recompensed": 3431,
      "wealthy": 3432,
      "acceptable": 3433,
      "loved": 3434,
      "loveth": 3435,
      "speaks": 3436,
      "doubted": 3437,
      "eats": 3438,
      "faction": 3439,
      "succeed": 3440,
      "disputed": 3441,
      "disputations": 3442,
      "hardship": 3443,
      "Scriptures": 3444,
      "Wherever": 3445,
      "igent": 3446,
      "visi": 3447,
      "vision": 3448,
      "visual": 3449,
      "visited": 3450,
      "virgin": 3451,
      "informed": 3452,
      "steeped": 3453,
      "spreading": 3454,
      "bull": 3455,
      "built": 3456,
      "beds": 3457,
      "barred": 3458,
      "birth": 3459,
      "curse": 3460,
      "emin": 3461,
      "freely": 3462,
      "freeman": 3463,
      "swine": 3464,
      "resting": 3465,
      "increases": 3466,
      "increased": 3467,
      "ushing": 3468,
      "favours": 3469,
      "supported": 3470,
      "fallen": 3471,
      "matters": 3472,
      "penalty": 3473,
      "paltry": 3474,
      "wishes": 3475,
      "waited": 3476,
      "enjoyment": 3477,
      "despite": 3478,
      "despondent": 3479,
      "proport": 3480,
      "producing": 3481,
      "confuse": 3482,
      "confusion": 3483,
      "provides": 3484,
      "availed": 3485,
      "corrupters": 3486,
      "protectors": 3487,
      "virtue": 3488,
      "Command": 3489,
      "Companions": 3490,
      "Firon": 3491,
      "Judge": 3492,
      "listens": 3493,
      "invite": 3494,
      "invites": 3495,
      "inviting": 3496,
      "invoke": 3497,
      "heedless": 3498,
      "sooner": 3499,
      "plains": 3500,
      "community": 3501,
      "communities": 3502,
      "watcher": 3503,
      "successors": 3504,
      "Blazing": 3505,
      "Korah": 3506,
      "Yea": 3507,
      "bountiful": 3508,
      "driven": 3509,
      "hiding": 3510,
      "spoken": 3511,
      "secrets": 3512,
      "definite": 3513,
      "desiring": 3514,
      "ascribed": 3515,
      "excel": 3516,
      "excellent": 3517,
      "devils": 3518,
      "magicians": 3519,
      "Arabs": 3520,
      "Seek": 3521,
      "afflicted": 3522,
      "afflicts": 3523,
      "Enough": 3524,
      "Father": 3525,
      "bodies": 3526,
      "click": 3527,
      "climb": 3528,
      "cliffs": 3529,
      "horrible": 3530,
      "hostility": 3531,
      "pagan": 3532,
      "tongues": 3533,
      "wasteful": 3534,
      "intense": 3535,
      "encompasses": 3536,
      "deceits": 3537,
      "deceased": 3538,
      "deceiver": 3539,
      "declared": 3540,
      "declaration": 3541,
      "prophets": 3542,
      "merely": 3543,
      "ification": 3544,
      "ificence": 3545,
      "conduct": 3546,
      "conferred": 3547,
      "seeming": 3548,
      "closer": 3549,
      "obligations": 3550,
      "violated": 3551,
      "properties": 3552,
      "intercessors": 3553,
      "recognised": 3554,
      "Anyone": 3555,
      "Powerful": 3556,
      "Stand": 3557,
      "Stay": 3558,
      "burning": 3559,
      "covering": 3560,
      "portion": 3561,
      "vines": 3562,
      "various": 3563,
      "variation": 3564,
      "ancient": 3565,
      "rebelled": 3566,
      "rebellious": 3567,
      "restrain": 3568,
      "requite": 3569,
      "requital": 3570,
      "rejoice": 3571,
      "rejoicing": 3572,
      "orphan": 3573,
      "began": 3574,
      "stern": 3575,
      "decide": 3576,
      "deviate": 3577,
      "idolaters": 3578,
      "meanings": 3579,
      "temptation": 3580,
      "straying": 3581,
      "bliss": 3582,
      "humiliating": 3583,
      "secretly": 3584,
      "arrogantly": 3585,
      "Harun": 3586,
      "Haram": 3587,
      "Should": 3588,
      "Words": 3589,
      "cumb": 3590,
      "differ": 3591,
      "effect": 3592,
      "future": 3593,
      "futility": 3594,
      "gushing": 3595,
      "lumps": 3596,
      "munificence": 3597,
      "narrat": 3598,
      "named": 3599,
      "names": 3600,
      "rank": 3601,
      "rising": 3602,
      "rises": 3603,
      "rounded": 3604,
      "surrendered": 3605,
      "upright": 3606,
      "vaing": 3607,
      "including": 3608,
      "attainment": 3609,
      "argument": 3610,
      "sacrifice": 3611,
      "sacrifici": 3612,
      "admonished": 3613,
      "distinguished": 3614,
      "distinguishing": 3615,
      "hoarded": 3616,
      "hardened": 3617,
      "strongest": 3618,
      "intoxicated": 3619,
      "eventual": 3620,
      "treasures": 3621,
      "Remember": 3622,
      "Remembrance": 3623,
      "swerve": 3624,
      "despaired": 3625,
      "periods": 3626,
      "encompassing": 3627,
      "multiply": 3628,
      "multiplied": 3629,
      "strength": 3630,
      "strengthen": 3631,
      "Creator": 3632,
      "Husna": 3633,
      "Muttaqun": 3634,
      "Madinah": 3635,
      "Samiri": 3636,
      "Supreme": 3637,
      "Tux": 3638,
      "boiling": 3639,
      "blood": 3640,
      "cups": 3641,
      "dumb": 3642,
      "directed": 3643,
      "generations": 3644,
      "hunger": 3645,
      "household": 3646,
      "mouth": 3647,
      "nonArabic": 3648,
      "sister": 3649,
      "store": 3650,
      "simil": 3651,
      "silver": 3652,
      "scales": 3653,
      "voice": 3654,
      "wandering": 3655,
      "resolve": 3656,
      "archdeceiver": 3657,
      "leveled": 3658,
      "depend": 3659,
      "aspires": 3660,
      "entrust": 3661,
      "advancing": 3662,
      "foolish": 3663,
      "suckling": 3664,
      "superior": 3665,
      "vengeance": 3666,
      "abundant": 3667,
      "reduced": 3668,
      "endued": 3669,
      "continue": 3670,
      "estimation": 3671,
      "Praise": 3672,
      "achievement": 3673,
      "collect": 3674,
      "respect": 3675,
      "criminals": 3676,
      "settlement": 3677,
      "glorify": 3678,
      "purifying": 3679,
      "correct": 3680,
      "encounter": 3681,
      "penitently": 3682,
      "recognize": 3683,
      "intentionally": 3684,
      "travellers": 3685,
      "completely": 3686,
      "circumambulate": 3687,
      "originated": 3688,
      "Creation": 3689,
      "Council": 3690,
      "Cherisher": 3691,
      "Egypt": 3692,
      "Earth": 3693,
      "Equality": 3694,
      "Follow": 3695,
      "From": 3696,
      "Fasiqun": 3697,
      "Haman": 3698,
      "Jesus": 3699,
      "Nuh": 3700,
      "Qisas": 3701,
      "Sacred": 3702,
      "Subtle": 3703,
      "Today": 3704,
      "Zalimun": 3705,
      "afraid": 3706,
      "booty": 3707,
      "blazing": 3708,
      "couches": 3709,
      "daughters": 3710,
      "fabric": 3711,
      "gonna": 3712,
      "journey": 3713,
      "labour": 3714,
      "lucky": 3715,
      "mutual": 3716,
      "pomp": 3717,
      "raging": 3718,
      "sweet": 3719,
      "smoke": 3720,
      "shelter": 3721,
      "symbols": 3722,
      "tilth": 3723,
      "villages": 3724,
      "zakat": 3725,
      "threaded": 3726,
      "reason": 3727,
      "reflect": 3728,
      "realize": 3729,
      "innocent": 3730,
      "vegetation": 3731,
      "security": 3732,
      "stubble": 3733,
      "withers": 3734,
      "ingratitude": 3735,
      "heareth": 3736,
      "deserved": 3737,
      "descend": 3738,
      "forsaken": 3739,
      "limitless": 3740,
      "iduals": 3741,
      "impurity": 3742,
      "impugn": 3743,
      "weighed": 3744,
      "unfailing": 3745,
      "unblest": 3746,
      "adultery": 3747,
      "soothsayer": 3748,
      "comprehends": 3749,
      "distinct": 3750,
      "exhortation": 3751,
      "feasible": 3752,
      "individuals": 3753,
      "agreements": 3754,
      "proclam": 3755,
      "prosperity": 3756,
      "preciative": 3757,
      "approval": 3758,
      "apparent": 3759,
      "overflowing": 3760,
      "heralds": 3761,
      "mosques": 3762,
      "slaughter": 3763,
      "remembered": 3764,
      "tremendous": 3765,
      "breathed": 3766,
      "sufficient": 3767,
      "sacrificial": 3768
    },
    "merges": [
      [
        "t",
        "h"
      ],
      [
        "th",
        "e"
      ],
      [
        "a",
        "n"
      ],
      [
        "r",
        "e"
      ],
      [
        "i",
        "n"
      ],
      [
        "o",
        "u"
      ],
      [
        "l",
        "l"
      ],
      [
        "v",
        "e"
      ],
      [
        "an",
        "d"
      ],
      [
        "i",
        "s"
      ],
      [
        "e",
        "n"
      ],
      [
        "o",
        "r"
      ],
      [
        "a",
        "t"
      ],
      [
        "o",
        "n"
      ],
      [
        "e",
        "d"
      ],
      [
        "t",
        "o"
      ],
      [
        "e",
        "r"
      ],
      [
        "w",
        "h"
      ],
      [
        "y",
        "ou"
      ],
      [
        "o",
        "f"
      ],
      [
        "b",
        "e"
      ],
      [
        "h",
        "a"
      ],
      [
        "s",
        "e"
      ],
      [
        "s",
        "t"
      ],
      [
        "w",
        "i"
      ],
      [
        "in",
        "g"
      ],
      [
        "a",
        "r"
      ],
      [
        "n",
        "o"
      ],
      [
        "o",
        "m"
      ],
      [
        "h",
        "e"
      ],
      [
        "a",
        "y"
      ],
      [
        "i",
        "t"
      ],
      [
        "l",
        "e"
      ],
      [
        "the",
        "y"
      ],
      [
        "d",
        "e"
      ],
      [
        "the",
        "m"
      ],
      [
        "f",
        "or"
      ],
      [
        "A",
        "ll"
      ],
      [
        "l",
        "i"
      ],
      [
        "a",
        "h"
      ],
      [
        "ve",
        "r"
      ],
      [
        "All",
        "ah"
      ],
      [
        "e",
        "s"
      ],
      [
        "no",
        "t"
      ],
      [
        "n",
        "d"
      ],
      [
        "i",
        "r"
      ],
      [
        "wi",
        "ll"
      ],
      [
        "wh",
        "o"
      ],
      [
        "a",
        "s"
      ],
      [
        "th",
        "at"
      ],
      [
        "i",
        "d"
      ],
      [
        "en",
        "t"
      ],
      [
        "i",
        "m"
      ],
      [
        "o",
        "w"
      ],
      [
        "l",
        "y"
      ],
      [
        "o",
        "d"
      ],
      [
        "W",
        "e"
      ],
      [
        "A",
        "nd"
      ],
      [
        "a",
        "re"
      ],
      [
        "H",
        "e"
      ],
      [
        "c",
        "e"
      ],
      [
        "w",
        "e"
      ],
      [
        "c",
        "h"
      ],
      [
        "u",
        "t"
      ],
      [
        "the",
        "ir"
      ],
      [
        "o",
        "se"
      ],
      [
        "ha",
        "ve"
      ],
      [
        "g",
        "h"
      ],
      [
        "u",
        "r"
      ],
      [
        "f",
        "r"
      ],
      [
        "u",
        "n"
      ],
      [
        "wi",
        "th"
      ],
      [
        "l",
        "d"
      ],
      [
        "e",
        "ver"
      ],
      [
        "or",
        "d"
      ],
      [
        "i",
        "on"
      ],
      [
        "fr",
        "om"
      ],
      [
        "s",
        "a"
      ],
      [
        "d",
        "o"
      ],
      [
        "p",
        "r"
      ],
      [
        "gh",
        "t"
      ],
      [
        "m",
        "e"
      ],
      [
        "be",
        "li"
      ],
      [
        "T",
        "he"
      ],
      [
        "a",
        "l"
      ],
      [
        "a",
        "d"
      ],
      [
        "a",
        "ll"
      ],
      [
        "you",
        "r"
      ],
      [
        "L",
        "ord"
      ],
      [
        "G",
        "od"
      ],
      [
        "th",
        "ose"
      ],
      [
        "o",
        "p"
      ],
      [
        "the",
        "r"
      ],
      [
        "f",
        "o"
      ],
      [
        "r",
        "i"
      ],
      [
        "a",
        "in"
      ],
      [
        "T",
        "h"
      ],
      [
        "h",
        "im"
      ],
      [
        "s",
        "o"
      ],
      [
        "i",
        "f"
      ],
      [
        "c",
        "om"
      ],
      [
        "k",
        "e"
      ],
      [
        "e",
        "ar"
      ],
      [
        "s",
        "u"
      ],
      [
        "on",
        "e"
      ],
      [
        "ve",
        "n"
      ],
      [
        "p",
        "e"
      ],
      [
        "wh",
        "at"
      ],
      [
        "wh",
        "i"
      ],
      [
        "a",
        "c"
      ],
      [
        "s",
        "ha"
      ],
      [
        "a",
        "m"
      ],
      [
        "wh",
        "en"
      ],
      [
        "t",
        "er"
      ],
      [
        "u",
        "s"
      ],
      [
        "b",
        "ut"
      ],
      [
        "no",
        "w"
      ],
      [
        "i",
        "l"
      ],
      [
        "u",
        "l"
      ],
      [
        "t",
        "r"
      ],
      [
        "m",
        "a"
      ],
      [
        "es",
        "s"
      ],
      [
        "sa",
        "id"
      ],
      [
        "on",
        "g"
      ],
      [
        "the",
        "re"
      ],
      [
        "u",
        "p"
      ],
      [
        "sha",
        "ll"
      ],
      [
        "a",
        "b"
      ],
      [
        "g",
        "e"
      ],
      [
        "whi",
        "ch"
      ],
      [
        "s",
        "i"
      ],
      [
        "s",
        "ay"
      ],
      [
        "g",
        "i"
      ],
      [
        "ha",
        "s"
      ],
      [
        "beli",
        "e"
      ],
      [
        "a",
        "st"
      ],
      [
        "m",
        "ent"
      ],
      [
        "s",
        "h"
      ],
      [
        "ou",
        "ld"
      ],
      [
        "de",
        "ed"
      ],
      [
        "op",
        "le"
      ],
      [
        "d",
        "is"
      ],
      [
        "ou",
        "r"
      ],
      [
        "er",
        "s"
      ],
      [
        "c",
        "t"
      ],
      [
        "k",
        "now"
      ],
      [
        "g",
        "o"
      ],
      [
        "o",
        "st"
      ],
      [
        "ar",
        "d"
      ],
      [
        "W",
        "h"
      ],
      [
        "g",
        "u"
      ],
      [
        "fo",
        "re"
      ],
      [
        "th",
        "ing"
      ],
      [
        "b",
        "r"
      ],
      [
        "c",
        "a"
      ],
      [
        "pe",
        "ople"
      ],
      [
        "we",
        "re"
      ],
      [
        "m",
        "an"
      ],
      [
        "ou",
        "t"
      ],
      [
        "at",
        "ion"
      ],
      [
        "H",
        "is"
      ],
      [
        "the",
        "n"
      ],
      [
        "tr",
        "u"
      ],
      [
        "b",
        "y"
      ],
      [
        "e",
        "x"
      ],
      [
        "belie",
        "ve"
      ],
      [
        "ur",
        "n"
      ],
      [
        "ow",
        "n"
      ],
      [
        ".",
        "\""
      ],
      [
        "o",
        "ther"
      ],
      [
        "t",
        "s"
      ],
      [
        "is",
        "h"
      ],
      [
        "a",
        "w"
      ],
      [
        "The",
        "y"
      ],
      [
        "up",
        "on"
      ],
      [
        "re",
        "d"
      ],
      [
        "at",
        "e"
      ],
      [
        "s",
        "ent"
      ],
      [
        "t",
        "urn"
      ],
      [
        "ve",
        "s"
      ],
      [
        "f",
        "a"
      ],
      [
        "f",
        "ul"
      ],
      [
        "h",
        "is"
      ],
      [
        "i",
        "ght"
      ],
      [
        "y",
        "e"
      ],
      [
        "f",
        "e"
      ],
      [
        "p",
        "t"
      ],
      [
        "se",
        "l"
      ],
      [
        "th",
        "is"
      ],
      [
        "in",
        "d"
      ],
      [
        "en",
        "d"
      ],
      [
        "w",
        "or"
      ],
      [
        "g",
        "n"
      ],
      [
        "s",
        "s"
      ],
      [
        "o",
        "o"
      ],
      [
        "w",
        "as"
      ],
      [
        "is",
        "e"
      ],
      [
        "a",
        "f"
      ],
      [
        "re",
        "at"
      ],
      [
        "ear",
        "th"
      ],
      [
        "a",
        "g"
      ],
      [
        "ever",
        "s"
      ],
      [
        "n",
        "e"
      ],
      [
        "be",
        "fore"
      ],
      [
        "H",
        "im"
      ],
      [
        "d",
        "ay"
      ],
      [
        "g",
        "r"
      ],
      [
        "t",
        "e"
      ],
      [
        "pr",
        "o"
      ],
      [
        "c",
        "on"
      ],
      [
        "m",
        "ay"
      ],
      [
        "an",
        "y"
      ],
      [
        "ou",
        "s"
      ],
      [
        "e",
        "v"
      ],
      [
        "ha",
        "m"
      ],
      [
        "se",
        "e"
      ],
      [
        "beli",
        "evers"
      ],
      [
        "t",
        "a"
      ],
      [
        "u",
        "re"
      ],
      [
        "com",
        "e"
      ],
      [
        ")",
        "."
      ],
      [
        "B",
        "ut"
      ],
      [
        "a",
        "ve"
      ],
      [
        "p",
        "re"
      ],
      [
        "ha",
        "d"
      ],
      [
        "om",
        "e"
      ],
      [
        "go",
        "od"
      ],
      [
        "S",
        "o"
      ],
      [
        ")",
        ","
      ],
      [
        "S",
        "ay"
      ],
      [
        "i",
        "de"
      ],
      [
        "an",
        "ce"
      ],
      [
        "t",
        "ed"
      ],
      [
        "u",
        "se"
      ],
      [
        "ma",
        "de"
      ],
      [
        "I",
        "n"
      ],
      [
        "m",
        "y"
      ],
      [
        "er",
        "c"
      ],
      [
        "i",
        "ly"
      ],
      [
        "p",
        "l"
      ],
      [
        "it",
        "s"
      ],
      [
        "am",
        "ong"
      ],
      [
        "oo",
        "k"
      ],
      [
        "O",
        "ur"
      ],
      [
        "th",
        "ou"
      ],
      [
        "wh",
        "om"
      ],
      [
        "I",
        "t"
      ],
      [
        "b",
        "le"
      ],
      [
        "w",
        "ard"
      ],
      [
        "ou",
        "n"
      ],
      [
        "en",
        "g"
      ],
      [
        "tru",
        "th"
      ],
      [
        "s",
        "ome"
      ],
      [
        "af",
        "ter"
      ],
      [
        "t",
        "ain"
      ],
      [
        "ess",
        "eng"
      ],
      [
        "c",
        "k"
      ],
      [
        "he",
        "ar"
      ],
      [
        "ce",
        "pt"
      ],
      [
        "d",
        "en"
      ],
      [
        "ll",
        "ow"
      ],
      [
        "it",
        "y"
      ],
      [
        "a",
        "th"
      ],
      [
        "d",
        "own"
      ],
      [
        "h",
        "o"
      ],
      [
        "i",
        "ll"
      ],
      [
        "sel",
        "ves"
      ],
      [
        "p",
        "o"
      ],
      [
        "be",
        "en"
      ],
      [
        "ever",
        "y"
      ],
      [
        "si",
        "gn"
      ],
      [
        "i",
        "re"
      ],
      [
        "Th",
        "en"
      ],
      [
        "ag",
        "ain"
      ],
      [
        "a",
        "p"
      ],
      [
        "c",
        "l"
      ],
      [
        "p",
        "er"
      ],
      [
        "ri",
        "ght"
      ],
      [
        "D",
        "ay"
      ],
      [
        "M",
        "u"
      ],
      [
        "e",
        "t"
      ],
      [
        "o",
        "ver"
      ],
      [
        "th",
        "an"
      ],
      [
        "ing",
        "s"
      ],
      [
        "un",
        "ish"
      ],
      [
        "d",
        "id"
      ],
      [
        "e",
        "st"
      ],
      [
        "w",
        "ould"
      ],
      [
        "on",
        "ly"
      ],
      [
        "ha",
        "r"
      ],
      [
        "an",
        "s"
      ],
      [
        "re",
        "ve"
      ],
      [
        "in",
        "deed"
      ],
      [
        "p",
        "unish"
      ],
      [
        "w",
        "r"
      ],
      [
        "an",
        "t"
      ],
      [
        "gi",
        "ve"
      ],
      [
        "ca",
        "use"
      ],
      [
        "ev",
        "il"
      ],
      [
        "a",
        "ce"
      ],
      [
        "m",
        "b"
      ],
      [
        "n",
        "ess"
      ],
      [
        "u",
        "st"
      ],
      [
        "he",
        "a"
      ],
      [
        "thing",
        "s"
      ],
      [
        "ham",
        "m"
      ],
      [
        "M",
        "esseng"
      ],
      [
        "c",
        "an"
      ],
      [
        "f",
        "ear"
      ],
      [
        "st",
        "r"
      ],
      [
        "fo",
        "llow"
      ],
      [
        "com",
        "m"
      ],
      [
        "sh",
        "ould"
      ],
      [
        "gu",
        "id"
      ],
      [
        "i",
        "p"
      ],
      [
        "n",
        "or"
      ],
      [
        "v",
        "ing"
      ],
      [
        "w",
        "ar"
      ],
      [
        "the",
        "e"
      ],
      [
        "su",
        "re"
      ],
      [
        "aw",
        "ay"
      ],
      [
        "p",
        "ar"
      ],
      [
        "I",
        "f"
      ],
      [
        "in",
        "to"
      ],
      [
        "be",
        "t"
      ],
      [
        "un",
        "to"
      ],
      [
        "hea",
        "ven"
      ],
      [
        "l",
        "o"
      ],
      [
        "pr",
        "ay"
      ],
      [
        "again",
        "st"
      ],
      [
        ".",
        "”"
      ],
      [
        "i",
        "c"
      ],
      [
        "l",
        "ed"
      ],
      [
        "q",
        "u"
      ],
      [
        "Y",
        "ou"
      ],
      [
        "p",
        "le"
      ],
      [
        "s",
        "er"
      ],
      [
        "sh",
        "ip"
      ],
      [
        "Mu",
        "hamm"
      ],
      [
        "punish",
        "ment"
      ],
      [
        "sure",
        "ly"
      ],
      [
        "Muhamm",
        "ad"
      ],
      [
        "P",
        "r"
      ],
      [
        "l",
        "s"
      ],
      [
        "w",
        "ay"
      ],
      [
        "wh",
        "e"
      ],
      [
        "ma",
        "ke"
      ],
      [
        "a",
        "ch"
      ],
      [
        "m",
        "en"
      ],
      [
        "s",
        "p"
      ],
      [
        "ex",
        "cept"
      ],
      [
        "B",
        "ook"
      ],
      [
        "h",
        "er"
      ],
      [
        "i",
        "ve"
      ],
      [
        "s",
        "ou"
      ],
      [
        "t",
        "y"
      ],
      [
        "N",
        "o"
      ],
      [
        "c",
        "le"
      ],
      [
        "m",
        "o"
      ],
      [
        "ow",
        "er"
      ],
      [
        "we",
        "ll"
      ],
      [
        "gi",
        "ven"
      ],
      [
        "ta",
        "ke"
      ],
      [
        "In",
        "deed"
      ],
      [
        "i",
        "th"
      ],
      [
        "m",
        "ost"
      ],
      [
        "u",
        "d"
      ],
      [
        "li",
        "fe"
      ],
      [
        "wr",
        "ong"
      ],
      [
        "heaven",
        "s"
      ],
      [
        "D",
        "o"
      ],
      [
        "M",
        "y"
      ],
      [
        "c",
        "re"
      ],
      [
        "c",
        "reat"
      ],
      [
        "u",
        "nd"
      ],
      [
        "c",
        "all"
      ],
      [
        "e",
        "ven"
      ],
      [
        "m",
        "erc"
      ],
      [
        "w",
        "at"
      ],
      [
        "en",
        "ce"
      ],
      [
        "li",
        "ke"
      ],
      [
        "si",
        "de"
      ],
      [
        "Wh",
        "en"
      ],
      [
        "sign",
        "s"
      ],
      [
        "c",
        "i"
      ],
      [
        "c",
        "er"
      ],
      [
        "i",
        "es"
      ],
      [
        "ac",
        "k"
      ],
      [
        "ac",
        "t"
      ],
      [
        "Wh",
        "o"
      ],
      [
        "mb",
        "er"
      ],
      [
        "Messeng",
        "er"
      ],
      [
        "F",
        "or"
      ],
      [
        "c",
        "ri"
      ],
      [
        "se",
        "s"
      ],
      [
        "as",
        "k"
      ],
      [
        "if",
        "ul"
      ],
      [
        "br",
        "ing"
      ],
      [
        "ca",
        "me"
      ],
      [
        "s",
        "l"
      ],
      [
        "to",
        "w"
      ],
      [
        "Th",
        "is"
      ],
      [
        "ab",
        "out"
      ],
      [
        "whe",
        "re"
      ],
      [
        "und",
        "er"
      ],
      [
        "deed",
        "s"
      ],
      [
        "ho",
        "ld"
      ],
      [
        "comm",
        "and"
      ],
      [
        "par",
        "t"
      ],
      [
        "h",
        "and"
      ],
      [
        "k",
        "ing"
      ],
      [
        "n",
        "one"
      ],
      [
        "o",
        "b"
      ],
      [
        "st",
        "and"
      ],
      [
        "le",
        "t"
      ],
      [
        "them",
        "selves"
      ],
      [
        "op",
        "he"
      ],
      [
        "ation",
        "s"
      ],
      [
        "j",
        "ust"
      ],
      [
        "re",
        "me"
      ],
      [
        "re",
        "turn"
      ],
      [
        "re",
        "ward"
      ],
      [
        "com",
        "p"
      ],
      [
        "us",
        "ed"
      ],
      [
        "ast",
        "r"
      ],
      [
        "fa",
        "ith"
      ],
      [
        "war",
        "n"
      ],
      [
        "merc",
        "y"
      ],
      [
        "M",
        "ose"
      ],
      [
        "m",
        "ight"
      ],
      [
        "an",
        "ge"
      ],
      [
        "at",
        "ed"
      ],
      [
        "le",
        "ss"
      ],
      [
        "The",
        "re"
      ],
      [
        "sel",
        "f"
      ],
      [
        "wor",
        "ld"
      ],
      [
        "hear",
        "ts"
      ],
      [
        "astr",
        "ay"
      ],
      [
        "Mose",
        "s"
      ],
      [
        "A",
        "s"
      ],
      [
        "V",
        "er"
      ],
      [
        "d",
        "r"
      ],
      [
        "e",
        "ct"
      ],
      [
        "f",
        "er"
      ],
      [
        "o",
        "y"
      ],
      [
        "p",
        "ower"
      ],
      [
        "t",
        "im"
      ],
      [
        "th",
        "r"
      ],
      [
        "th",
        "y"
      ],
      [
        "is",
        "ed"
      ],
      [
        "en",
        "e"
      ],
      [
        "be",
        "st"
      ],
      [
        "be",
        "cause"
      ],
      [
        "ab",
        "le"
      ],
      [
        "gu",
        "ide"
      ],
      [
        "reve",
        "al"
      ],
      [
        "M",
        "ost"
      ],
      [
        "M",
        "erc"
      ],
      [
        "b",
        "ack"
      ],
      [
        "c",
        "o"
      ],
      [
        "k",
        "ind"
      ],
      [
        "s",
        "in"
      ],
      [
        "an",
        "ts"
      ],
      [
        "re",
        "n"
      ],
      [
        "re",
        "s"
      ],
      [
        "ha",
        "th"
      ],
      [
        "ver",
        "ily"
      ],
      [
        "other",
        "s"
      ],
      [
        "Ver",
        "ily"
      ],
      [
        "B",
        "e"
      ],
      [
        "h",
        "ow"
      ],
      [
        "l",
        "ong"
      ],
      [
        "p",
        "at"
      ],
      [
        "p",
        "ut"
      ],
      [
        "u",
        "m"
      ],
      [
        "w",
        "o"
      ],
      [
        "be",
        "y"
      ],
      [
        "he",
        "l"
      ],
      [
        "as",
        "s"
      ],
      [
        "we",
        "en"
      ],
      [
        "un",
        "t"
      ],
      [
        "tain",
        "ly"
      ],
      [
        "bet",
        "ween"
      ],
      [
        "creat",
        "ed"
      ],
      [
        "F",
        "ire"
      ],
      [
        "a",
        "u"
      ],
      [
        "e",
        "p"
      ],
      [
        "j",
        "ect"
      ],
      [
        "t",
        "re"
      ],
      [
        "v",
        "i"
      ],
      [
        "ou",
        "ght"
      ],
      [
        "Th",
        "at"
      ],
      [
        "Th",
        "ose"
      ],
      [
        "wor",
        "ship"
      ],
      [
        "oun",
        "t"
      ],
      [
        "Pr",
        "ophe"
      ],
      [
        "cle",
        "ar"
      ],
      [
        "wat",
        "er"
      ],
      [
        "K",
        "now"
      ],
      [
        "a",
        "k"
      ],
      [
        "r",
        "a"
      ],
      [
        "the",
        "se"
      ],
      [
        "re",
        "p"
      ],
      [
        "or",
        "n"
      ],
      [
        "it",
        "e"
      ],
      [
        "pr",
        "om"
      ],
      [
        "whi",
        "le"
      ],
      [
        "man",
        "y"
      ],
      [
        "a",
        "se"
      ],
      [
        "c",
        "r"
      ],
      [
        "i",
        "ous"
      ],
      [
        "l",
        "and"
      ],
      [
        "w",
        "om"
      ],
      [
        "is",
        "t"
      ],
      [
        "ha",
        "st"
      ],
      [
        "do",
        "es"
      ],
      [
        "dis",
        "believers"
      ],
      [
        "ost",
        "le"
      ],
      [
        "pro",
        "v"
      ],
      [
        "guid",
        "ance"
      ],
      [
        "reme",
        "mber"
      ],
      [
        "pat",
        "i"
      ],
      [
        "unt",
        "il"
      ],
      [
        "d",
        "i"
      ],
      [
        "o",
        "bey"
      ],
      [
        "r",
        "o"
      ],
      [
        "en",
        "s"
      ],
      [
        "se",
        "t"
      ],
      [
        "ct",
        "ion"
      ],
      [
        "pray",
        "er"
      ],
      [
        "Merc",
        "iful"
      ],
      [
        "f",
        "ir"
      ],
      [
        "i",
        "ther"
      ],
      [
        "l",
        "a"
      ],
      [
        "re",
        "ad"
      ],
      [
        "ou",
        "nd"
      ],
      [
        "for",
        "th"
      ],
      [
        "sa",
        "ve"
      ],
      [
        "su",
        "b"
      ],
      [
        "know",
        "s"
      ],
      [
        "fa",
        "ther"
      ],
      [
        "ble",
        "ss"
      ],
      [
        "guid",
        "ed"
      ],
      [
        "led",
        "ge"
      ],
      [
        "hel",
        "p"
      ],
      [
        ".",
        "'"
      ],
      [
        "?",
        "\""
      ],
      [
        "A",
        "l"
      ],
      [
        "U",
        "s"
      ],
      [
        "]",
        "."
      ],
      [
        "g",
        "reat"
      ],
      [
        "o",
        "l"
      ],
      [
        "s",
        "pe"
      ],
      [
        "t",
        "or"
      ],
      [
        "t",
        "wo"
      ],
      [
        "an",
        "other"
      ],
      [
        "to",
        "o"
      ],
      [
        "wi",
        "t"
      ],
      [
        "he",
        "s"
      ],
      [
        "for",
        "m"
      ],
      [
        "there",
        "in"
      ],
      [
        "Wh",
        "at"
      ],
      [
        "reve",
        "l"
      ],
      [
        "tim",
        "e"
      ],
      [
        "reveal",
        "ed"
      ],
      [
        "Prophe",
        "t"
      ],
      [
        ")",
        ":"
      ],
      [
        "O",
        "n"
      ],
      [
        "a",
        "ge"
      ],
      [
        "b",
        "re"
      ],
      [
        "e",
        "ous"
      ],
      [
        "f",
        "ire"
      ],
      [
        "g",
        "od"
      ],
      [
        "m",
        "it"
      ],
      [
        "be",
        "side"
      ],
      [
        "ver",
        "s"
      ],
      [
        "Th",
        "ou"
      ],
      [
        "dis",
        "believe"
      ],
      [
        "know",
        "ledge"
      ],
      [
        "br",
        "ought"
      ],
      [
        "tru",
        "e"
      ],
      [
        "thou",
        "gh"
      ],
      [
        "sou",
        "l"
      ],
      [
        "cer",
        "tainly"
      ],
      [
        "tor",
        "ment"
      ],
      [
        "H",
        "ave"
      ],
      [
        "T",
        "o"
      ],
      [
        "U",
        "n"
      ],
      [
        "e",
        "l"
      ],
      [
        "e",
        "y"
      ],
      [
        "e",
        "ve"
      ],
      [
        "i",
        "ce"
      ],
      [
        "i",
        "ld"
      ],
      [
        "m",
        "is"
      ],
      [
        "or",
        "t"
      ],
      [
        "gu",
        "ard"
      ],
      [
        "right",
        "eous"
      ],
      [
        "-",
        "-"
      ],
      [
        "Y",
        "our"
      ],
      [
        "b",
        "ur"
      ],
      [
        "c",
        "ould"
      ],
      [
        "f",
        "u"
      ],
      [
        "g",
        "ri"
      ],
      [
        "l",
        "ow"
      ],
      [
        "n",
        "ever"
      ],
      [
        "w",
        "s"
      ],
      [
        "on",
        "es"
      ],
      [
        "to",
        "ward"
      ],
      [
        "li",
        "ght"
      ],
      [
        "as",
        "so"
      ],
      [
        "ce",
        "ive"
      ],
      [
        "ur",
        "re"
      ],
      [
        "ion",
        "s"
      ],
      [
        "gi",
        "ving"
      ],
      [
        "ast",
        "e"
      ],
      [
        "turn",
        "ed"
      ],
      [
        "ple",
        "as"
      ],
      [
        "under",
        "stand"
      ],
      [
        "asso",
        "ci"
      ],
      [
        "I",
        "s"
      ],
      [
        "L",
        "o"
      ],
      [
        "P",
        "e"
      ],
      [
        "a",
        "v"
      ],
      [
        "k",
        "s"
      ],
      [
        "r",
        "ate"
      ],
      [
        "s",
        "end"
      ],
      [
        "t",
        "en"
      ],
      [
        "t",
        "le"
      ],
      [
        "ou",
        "gh"
      ],
      [
        "on",
        "d"
      ],
      [
        "be",
        "come"
      ],
      [
        "le",
        "ave"
      ],
      [
        "de",
        "si"
      ],
      [
        "de",
        "str"
      ],
      [
        "li",
        "g"
      ],
      [
        "He",
        "ll"
      ],
      [
        "un",
        "just"
      ],
      [
        "su",
        "ch"
      ],
      [
        "ac",
        "c"
      ],
      [
        "say",
        "ing"
      ],
      [
        "br",
        "a"
      ],
      [
        "bet",
        "ter"
      ],
      [
        "ser",
        "v"
      ],
      [
        "tow",
        "n"
      ],
      [
        "wom",
        "en"
      ],
      [
        "wit",
        "ness"
      ],
      [
        "A",
        "W"
      ],
      [
        "A",
        "bra"
      ],
      [
        "H",
        "ow"
      ],
      [
        "Q",
        "ur"
      ],
      [
        "S",
        "AW"
      ],
      [
        "W",
        "ise"
      ],
      [
        "d",
        "well"
      ],
      [
        "f",
        "ind"
      ],
      [
        "g",
        "re"
      ],
      [
        "g",
        "ard"
      ],
      [
        "i",
        "gn"
      ],
      [
        "n",
        "ight"
      ],
      [
        "p",
        "ath"
      ],
      [
        "p",
        "ass"
      ],
      [
        "u",
        "e"
      ],
      [
        "w",
        "ord"
      ],
      [
        "re",
        "m"
      ],
      [
        "be",
        "long"
      ],
      [
        "un",
        "believers"
      ],
      [
        "so",
        "ever"
      ],
      [
        "ke",
        "ep"
      ],
      [
        "sh",
        "ow"
      ],
      [
        "fa",
        "v"
      ],
      [
        "au",
        "ght"
      ],
      [
        "rep",
        "ent"
      ],
      [
        "Abra",
        "ham"
      ],
      [
        "O",
        "ne"
      ],
      [
        "g",
        "l"
      ],
      [
        "h",
        "u"
      ],
      [
        "k",
        "en"
      ],
      [
        "p",
        "ur"
      ],
      [
        "u",
        "al"
      ],
      [
        "th",
        "in"
      ],
      [
        "ha",
        "p"
      ],
      [
        "st",
        "ri"
      ],
      [
        "ar",
        "s"
      ],
      [
        "he",
        "re"
      ],
      [
        "de",
        "v"
      ],
      [
        "who",
        "se"
      ],
      [
        "who",
        "ever"
      ],
      [
        "He",
        "re"
      ],
      [
        "pati",
        "ent"
      ],
      [
        "revel",
        "ations"
      ],
      [
        "ey",
        "es"
      ],
      [
        "bur",
        "den"
      ],
      [
        "M",
        "e"
      ],
      [
        "R",
        "e"
      ],
      [
        "]",
        ","
      ],
      [
        "b",
        "l"
      ],
      [
        "f",
        "t"
      ],
      [
        "f",
        "al"
      ],
      [
        "i",
        "ed"
      ],
      [
        "k",
        "es"
      ],
      [
        "n",
        "ing"
      ],
      [
        "o",
        "th"
      ],
      [
        "t",
        "id"
      ],
      [
        "re",
        "c"
      ],
      [
        "re",
        "e"
      ],
      [
        "at",
        "an"
      ],
      [
        "be",
        "s"
      ],
      [
        "le",
        "ad"
      ],
      [
        "for",
        "give"
      ],
      [
        "li",
        "ve"
      ],
      [
        "ver",
        "y"
      ],
      [
        "do",
        "ers"
      ],
      [
        "su",
        "f"
      ],
      [
        "what",
        "ever"
      ],
      [
        "ab",
        "o"
      ],
      [
        "ate",
        "ful"
      ],
      [
        "gr",
        "ateful"
      ],
      [
        "ap",
        "ostle"
      ],
      [
        "beside",
        "s"
      ],
      [
        "destr",
        "oy"
      ],
      [
        "E",
        "x"
      ],
      [
        "S",
        "ure"
      ],
      [
        "S",
        "atan"
      ],
      [
        "c",
        "ar"
      ],
      [
        "c",
        "hast"
      ],
      [
        "e",
        "th"
      ],
      [
        "h",
        "ind"
      ],
      [
        "j",
        "ud"
      ],
      [
        "k",
        "y"
      ],
      [
        "k",
        "ill"
      ],
      [
        "l",
        "ook"
      ],
      [
        "m",
        "oun"
      ],
      [
        "o",
        "t"
      ],
      [
        "p",
        "ain"
      ],
      [
        "s",
        "ky"
      ],
      [
        "re",
        "ject"
      ],
      [
        "ve",
        "re"
      ],
      [
        "or",
        "s"
      ],
      [
        "to",
        "ge"
      ],
      [
        "no",
        "thing"
      ],
      [
        "de",
        "ath"
      ],
      [
        "li",
        "es"
      ],
      [
        "with",
        "out"
      ],
      [
        "your",
        "selves"
      ],
      [
        "him",
        "self"
      ],
      [
        "te",
        "st"
      ],
      [
        "po",
        "in"
      ],
      [
        "every",
        "thing"
      ],
      [
        "can",
        "not"
      ],
      [
        "ser",
        "ve"
      ],
      [
        "ild",
        "ren"
      ],
      [
        "Here",
        "after"
      ],
      [
        "fal",
        "se"
      ],
      [
        "tid",
        "ings"
      ],
      [
        "bes",
        "tow"
      ],
      [
        "moun",
        "tain"
      ],
      [
        "toge",
        "ther"
      ],
      [
        ".",
        "’"
      ],
      [
        "A",
        "d"
      ],
      [
        "O",
        "r"
      ],
      [
        "S",
        "ha"
      ],
      [
        "b",
        "id"
      ],
      [
        "b",
        "ene"
      ],
      [
        "c",
        "or"
      ],
      [
        "c",
        "ast"
      ],
      [
        "d",
        "ou"
      ],
      [
        "f",
        "ast"
      ],
      [
        "g",
        "a"
      ],
      [
        "g",
        "ed"
      ],
      [
        "i",
        "z"
      ],
      [
        "m",
        "s"
      ],
      [
        "n",
        "a"
      ],
      [
        "p",
        "h"
      ],
      [
        "p",
        "are"
      ],
      [
        "s",
        "on"
      ],
      [
        "s",
        "he"
      ],
      [
        "w",
        "ise"
      ],
      [
        "or",
        "y"
      ],
      [
        "be",
        "hind"
      ],
      [
        "le",
        "s"
      ],
      [
        "pe",
        "ace"
      ],
      [
        "belie",
        "f"
      ],
      [
        "believe",
        "d"
      ],
      [
        "ye",
        "t"
      ],
      [
        "ne",
        "ither"
      ],
      [
        "te",
        "ll"
      ],
      [
        "pre",
        "sent"
      ],
      [
        "pl",
        "ace"
      ],
      [
        "po",
        "s"
      ],
      [
        "ap",
        "poin"
      ],
      [
        "Be",
        "li"
      ],
      [
        "prom",
        "ised"
      ],
      [
        "too",
        "k"
      ],
      [
        "Un",
        "to"
      ],
      [
        "Pe",
        "ople"
      ],
      [
        "serv",
        "ants"
      ],
      [
        "Qur",
        "an"
      ],
      [
        "Sure",
        "ly"
      ],
      [
        "B",
        "r"
      ],
      [
        "H",
        "ad"
      ],
      [
        "a",
        "it"
      ],
      [
        "a",
        "id"
      ],
      [
        "a",
        "im"
      ],
      [
        "c",
        "ess"
      ],
      [
        "c",
        "our"
      ],
      [
        "d",
        "om"
      ],
      [
        "e",
        "ach"
      ],
      [
        "r",
        "or"
      ],
      [
        "t",
        "ing"
      ],
      [
        "re",
        "l"
      ],
      [
        "re",
        "ach"
      ],
      [
        "in",
        "ed"
      ],
      [
        "en",
        "se"
      ],
      [
        "at",
        "ter"
      ],
      [
        "to",
        "ld"
      ],
      [
        "of",
        "f"
      ],
      [
        "we",
        "ar"
      ],
      [
        "ch",
        "ed"
      ],
      [
        "fr",
        "u"
      ],
      [
        "ord",
        "er"
      ],
      [
        "do",
        "ing"
      ],
      [
        "pr",
        "ost"
      ],
      [
        "all",
        "ow"
      ],
      [
        "Th",
        "us"
      ],
      [
        "com",
        "es"
      ],
      [
        "pt",
        "ure"
      ],
      [
        "ise",
        "ment"
      ],
      [
        "any",
        "thing"
      ],
      [
        "et",
        "c"
      ],
      [
        "Messeng",
        "ers"
      ],
      [
        "sou",
        "ls"
      ],
      [
        "hand",
        "s"
      ],
      [
        "ange",
        "ls"
      ],
      [
        "dr",
        "aw"
      ],
      [
        "read",
        "y"
      ],
      [
        "toward",
        "s"
      ],
      [
        "pleas",
        "ed"
      ],
      [
        "associ",
        "ate"
      ],
      [
        "chast",
        "isement"
      ],
      [
        "pain",
        "ful"
      ],
      [
        "bestow",
        "ed"
      ],
      [
        "mountain",
        "s"
      ],
      [
        "C",
        "h"
      ],
      [
        "R",
        "es"
      ],
      [
        "a",
        "il"
      ],
      [
        "b",
        "oth"
      ],
      [
        "c",
        "har"
      ],
      [
        "d",
        "one"
      ],
      [
        "f",
        "ar"
      ],
      [
        "f",
        "it"
      ],
      [
        "g",
        "ave"
      ],
      [
        "h",
        "on"
      ],
      [
        "i",
        "e"
      ],
      [
        "i",
        "v"
      ],
      [
        "m",
        "on"
      ],
      [
        "m",
        "ar"
      ],
      [
        "m",
        "esseng"
      ],
      [
        "n",
        "er"
      ],
      [
        "n",
        "ear"
      ],
      [
        "o",
        "h"
      ],
      [
        "r",
        "u"
      ],
      [
        "r",
        "y"
      ],
      [
        "s",
        "c"
      ],
      [
        "t",
        "ri"
      ],
      [
        "t",
        "reat"
      ],
      [
        "the",
        "is"
      ],
      [
        "re",
        "comp"
      ],
      [
        "in",
        "f"
      ],
      [
        "ed",
        "i"
      ],
      [
        "of",
        "fer"
      ],
      [
        "be",
        "hold"
      ],
      [
        "se",
        "en"
      ],
      [
        "se",
        "vere"
      ],
      [
        "for",
        "given"
      ],
      [
        "li",
        "e"
      ],
      [
        "ver",
        "ses"
      ],
      [
        "ent",
        "er"
      ],
      [
        "we",
        "al"
      ],
      [
        "sa",
        "w"
      ],
      [
        "The",
        "se"
      ],
      [
        "ad",
        "s"
      ],
      [
        "ain",
        "ed"
      ],
      [
        "if",
        "est"
      ],
      [
        "su",
        "red"
      ],
      [
        "ac",
        "cept"
      ],
      [
        "ma",
        "gi"
      ],
      [
        "ab",
        "l"
      ],
      [
        "belie",
        "ving"
      ],
      [
        "ct",
        "ed"
      ],
      [
        "man",
        "kind"
      ],
      [
        "ish",
        "ed"
      ],
      [
        "aw",
        "are"
      ],
      [
        "see",
        "k"
      ],
      [
        "truth",
        "ful"
      ],
      [
        "har",
        "m"
      ],
      [
        "lo",
        "ve"
      ],
      [
        "sp",
        "end"
      ],
      [
        "For",
        "giving"
      ],
      [
        "thr",
        "ough"
      ],
      [
        "Know",
        "er"
      ],
      [
        "father",
        "s"
      ],
      [
        "spe",
        "ak"
      ],
      [
        "fu",
        "ll"
      ],
      [
        "desi",
        "res"
      ],
      [
        "abo",
        "ve"
      ],
      [
        "dou",
        "b"
      ],
      [
        "appoin",
        "ted"
      ],
      [
        "sured",
        "ly"
      ],
      [
        ".",
        ")"
      ],
      [
        ".",
        "."
      ],
      [
        "?",
        "”"
      ],
      [
        "B",
        "y"
      ],
      [
        "M",
        "ight"
      ],
      [
        "P",
        "har"
      ],
      [
        "Y",
        "et"
      ],
      [
        "a",
        "oh"
      ],
      [
        "b",
        "it"
      ],
      [
        "c",
        "ed"
      ],
      [
        "e",
        "at"
      ],
      [
        "f",
        "act"
      ],
      [
        "i",
        "gh"
      ],
      [
        "l",
        "it"
      ],
      [
        "n",
        "ation"
      ],
      [
        "o",
        "ld"
      ],
      [
        "p",
        "ay"
      ],
      [
        "s",
        "ing"
      ],
      [
        "w",
        "are"
      ],
      [
        "re",
        "ceive"
      ],
      [
        "re",
        "lig"
      ],
      [
        "ou",
        "p"
      ],
      [
        "en",
        "ed"
      ],
      [
        "be",
        "ing"
      ],
      [
        "for",
        "bid"
      ],
      [
        "ver",
        "se"
      ],
      [
        "will",
        "s"
      ],
      [
        "al",
        "one"
      ],
      [
        "al",
        "ready"
      ],
      [
        "if",
        "y"
      ],
      [
        "su",
        "c"
      ],
      [
        "ac",
        "es"
      ],
      [
        "ter",
        "m"
      ],
      [
        "ast",
        "s"
      ],
      [
        "dis",
        "put"
      ],
      [
        "go",
        "t"
      ],
      [
        "Wh",
        "y"
      ],
      [
        "br",
        "other"
      ],
      [
        "man",
        "ifest"
      ],
      [
        "ne",
        "ws"
      ],
      [
        "gr",
        "oup"
      ],
      [
        "pro",
        "te"
      ],
      [
        "ev",
        "id"
      ],
      [
        "hear",
        "t"
      ],
      [
        "har",
        "d"
      ],
      [
        "pray",
        "ers"
      ],
      [
        "cre",
        "ation"
      ],
      [
        "cri",
        "pture"
      ],
      [
        "command",
        "ed"
      ],
      [
        "fir",
        "m"
      ],
      [
        "fir",
        "st"
      ],
      [
        "urre",
        "ction"
      ],
      [
        "acc",
        "ount"
      ],
      [
        "jud",
        "ge"
      ],
      [
        "Br",
        "ing"
      ],
      [
        "Res",
        "urrection"
      ],
      [
        "Phar",
        "aoh"
      ],
      [
        "relig",
        "ion"
      ],
      [
        "A",
        "p"
      ],
      [
        "A",
        "r"
      ],
      [
        "G",
        "r"
      ],
      [
        "H",
        "our"
      ],
      [
        "N",
        "ay"
      ],
      [
        "S",
        "cripture"
      ],
      [
        "W",
        "here"
      ],
      [
        "a",
        "ves"
      ],
      [
        "e",
        "red"
      ],
      [
        "i",
        "g"
      ],
      [
        "j",
        "o"
      ],
      [
        "j",
        "oy"
      ],
      [
        "p",
        "ers"
      ],
      [
        "s",
        "ers"
      ],
      [
        "s",
        "pre"
      ],
      [
        "t",
        "ill"
      ],
      [
        "v",
        "is"
      ],
      [
        "v",
        "ir"
      ],
      [
        "in",
        "n"
      ],
      [
        "in",
        "ven"
      ],
      [
        "in",
        "form"
      ],
      [
        "ou",
        "se"
      ],
      [
        "er",
        "ror"
      ],
      [
        "st",
        "e"
      ],
      [
        "st",
        "ay"
      ],
      [
        "ar",
        "t"
      ],
      [
        "le",
        "st"
      ],
      [
        "id",
        "ed"
      ],
      [
        "ow",
        "s"
      ],
      [
        "ch",
        "ange"
      ],
      [
        "al",
        "so"
      ],
      [
        "al",
        "ted"
      ],
      [
        "all",
        "y"
      ],
      [
        "su",
        "p"
      ],
      [
        "ab",
        "ide"
      ],
      [
        "ge",
        "t"
      ],
      [
        "tru",
        "ly"
      ],
      [
        "gr",
        "ace"
      ],
      [
        "pro",
        "of"
      ],
      [
        "ta",
        "ken"
      ],
      [
        "ure",
        "s"
      ],
      [
        "den",
        "y"
      ],
      [
        "cl",
        "aim"
      ],
      [
        "est",
        "abl"
      ],
      [
        "follow",
        "ed"
      ],
      [
        "call",
        "ed"
      ],
      [
        "might",
        "y"
      ],
      [
        "co",
        "ven"
      ],
      [
        "Know",
        "ing"
      ],
      [
        "prom",
        "ise"
      ],
      [
        "bless",
        "ings"
      ],
      [
        "rem",
        "ind"
      ],
      [
        "hu",
        "man"
      ],
      [
        "thin",
        "k"
      ],
      [
        "destroy",
        "ed"
      ],
      [
        "prost",
        "rate"
      ],
      [
        "messeng",
        "er"
      ],
      [
        "recomp",
        "ense"
      ],
      [
        "weal",
        "th"
      ],
      [
        "spre",
        "ad"
      ],
      [
        ")",
        "!"
      ],
      [
        ",",
        "\""
      ],
      [
        "I",
        "sl"
      ],
      [
        "J",
        "e"
      ],
      [
        "b",
        "u"
      ],
      [
        "b",
        "ed"
      ],
      [
        "b",
        "ar"
      ],
      [
        "b",
        "ir"
      ],
      [
        "c",
        "ur"
      ],
      [
        "d",
        "s"
      ],
      [
        "d",
        "ue"
      ],
      [
        "e",
        "m"
      ],
      [
        "f",
        "ree"
      ],
      [
        "i",
        "end"
      ],
      [
        "j",
        "inn"
      ],
      [
        "l",
        "t"
      ],
      [
        "m",
        "orn"
      ],
      [
        "r",
        "up"
      ],
      [
        "s",
        "w"
      ],
      [
        "s",
        "un"
      ],
      [
        "s",
        "wear"
      ],
      [
        "t",
        "aste"
      ],
      [
        "w",
        "ent"
      ],
      [
        "z",
        "e"
      ],
      [
        "th",
        "us"
      ],
      [
        "re",
        "w"
      ],
      [
        "re",
        "st"
      ],
      [
        "in",
        "e"
      ],
      [
        "in",
        "s"
      ],
      [
        "in",
        "cre"
      ],
      [
        "en",
        "c"
      ],
      [
        "be",
        "ar"
      ],
      [
        "se",
        "iz"
      ],
      [
        "it",
        "ed"
      ],
      [
        "es",
        "sa"
      ],
      [
        "ir",
        "s"
      ],
      [
        "as",
        "suredly"
      ],
      [
        "ent",
        "s"
      ],
      [
        "od",
        "u"
      ],
      [
        "ch",
        "ildren"
      ],
      [
        "ut",
        "y"
      ],
      [
        "fr",
        "iend"
      ],
      [
        "ad",
        "ise"
      ],
      [
        "ri",
        "vers"
      ],
      [
        "ac",
        "ious"
      ],
      [
        "ter",
        "s"
      ],
      [
        "us",
        "h"
      ],
      [
        "tr",
        "act"
      ],
      [
        "there",
        "of"
      ],
      [
        "there",
        "fore"
      ],
      [
        "gi",
        "ves"
      ],
      [
        "tru",
        "st"
      ],
      [
        "aw",
        "ful"
      ],
      [
        "oun",
        "ty"
      ],
      [
        "ho",
        "od"
      ],
      [
        "lo",
        "sers"
      ],
      [
        "ple",
        "ase"
      ],
      [
        "No",
        "ah"
      ],
      [
        "No",
        "ble"
      ],
      [
        "mo",
        "re"
      ],
      [
        "sl",
        "ave"
      ],
      [
        "ob",
        "edi"
      ],
      [
        "gri",
        "eve"
      ],
      [
        "belong",
        "s"
      ],
      [
        "fav",
        "our"
      ],
      [
        "gl",
        "ad"
      ],
      [
        "false",
        "hood"
      ],
      [
        "Beli",
        "evers"
      ],
      [
        "forgiven",
        "ess"
      ],
      [
        "forbid",
        "den"
      ],
      [
        "Ap",
        "ostle"
      ],
      [
        "sup",
        "p"
      ],
      [
        "Isl",
        "am"
      ],
      [
        "\"",
        "."
      ],
      [
        ")",
        ";"
      ],
      [
        "A",
        "ware"
      ],
      [
        "N",
        "ow"
      ],
      [
        "P",
        "ar"
      ],
      [
        "S",
        "e"
      ],
      [
        "a",
        "ke"
      ],
      [
        "e",
        "ither"
      ],
      [
        "f",
        "all"
      ],
      [
        "f",
        "ic"
      ],
      [
        "h",
        "um"
      ],
      [
        "i",
        "ans"
      ],
      [
        "m",
        "atter"
      ],
      [
        "o",
        "s"
      ],
      [
        "o",
        "ls"
      ],
      [
        "p",
        "i"
      ],
      [
        "p",
        "en"
      ],
      [
        "p",
        "al"
      ],
      [
        "r",
        "un"
      ],
      [
        "s",
        "pr"
      ],
      [
        "t",
        "end"
      ],
      [
        "u",
        "ch"
      ],
      [
        "u",
        "mber"
      ],
      [
        "w",
        "is"
      ],
      [
        "w",
        "ish"
      ],
      [
        "w",
        "ait"
      ],
      [
        "an",
        "ted"
      ],
      [
        "re",
        "ck"
      ],
      [
        "en",
        "joy"
      ],
      [
        "or",
        "ity"
      ],
      [
        "at",
        "er"
      ],
      [
        "at",
        "es"
      ],
      [
        "on",
        "ing"
      ],
      [
        "se",
        "ss"
      ],
      [
        "st",
        "ill"
      ],
      [
        "it",
        "es"
      ],
      [
        "it",
        "ies"
      ],
      [
        "de",
        "red"
      ],
      [
        "de",
        "sp"
      ],
      [
        "for",
        "got"
      ],
      [
        "li",
        "ars"
      ],
      [
        "un",
        "grateful"
      ],
      [
        "pr",
        "a"
      ],
      [
        "pr",
        "op"
      ],
      [
        "pr",
        "odu"
      ],
      [
        "me",
        "ans"
      ],
      [
        "tr",
        "y"
      ],
      [
        "si",
        "ght"
      ],
      [
        "dis",
        "obey"
      ],
      [
        "ct",
        "s"
      ],
      [
        "gu",
        "il"
      ],
      [
        "fore",
        "ver"
      ],
      [
        "ca",
        "used"
      ],
      [
        "man",
        "ner"
      ],
      [
        "fe",
        "w"
      ],
      [
        "af",
        "f"
      ],
      [
        "ne",
        "ed"
      ],
      [
        "day",
        "s"
      ],
      [
        "gr",
        "ant"
      ],
      [
        "con",
        "f"
      ],
      [
        "con",
        "cer"
      ],
      [
        "pre",
        "s"
      ],
      [
        "pre",
        "ven"
      ],
      [
        "some",
        "thing"
      ],
      [
        "Mu",
        "sa"
      ],
      [
        "war",
        "y"
      ],
      [
        "qu",
        "est"
      ],
      [
        "return",
        "ed"
      ],
      [
        "thr",
        "ow"
      ],
      [
        "vi",
        "ct"
      ],
      [
        "prov",
        "ide"
      ],
      [
        "pati",
        "ence"
      ],
      [
        "sub",
        "mit"
      ],
      [
        "bless",
        "ed"
      ],
      [
        "god",
        "s"
      ],
      [
        "av",
        "ail"
      ],
      [
        "Ad",
        "am"
      ],
      [
        "bene",
        "fit"
      ],
      [
        "cor",
        "rup"
      ],
      [
        "pare",
        "n"
      ],
      [
        "doub",
        "t"
      ],
      [
        "Might",
        "y"
      ],
      [
        "lit",
        "tle"
      ],
      [
        "sing",
        "le"
      ],
      [
        "prote",
        "ct"
      ],
      [
        "vir",
        "t"
      ],
      [
        "coven",
        "ant"
      ],
      [
        "Je",
        "ws"
      ],
      [
        "Par",
        "adise"
      ],
      [
        "concer",
        "ning"
      ],
      [
        "C",
        "om"
      ],
      [
        "C",
        "all"
      ],
      [
        "F",
        "ir"
      ],
      [
        "G",
        "ard"
      ],
      [
        "J",
        "ose"
      ],
      [
        "J",
        "ud"
      ],
      [
        "O",
        "f"
      ],
      [
        "R",
        "ight"
      ],
      [
        "S",
        "ign"
      ],
      [
        "b",
        "ond"
      ],
      [
        "c",
        "al"
      ],
      [
        "c",
        "hes"
      ],
      [
        "h",
        "y"
      ],
      [
        "i",
        "ch"
      ],
      [
        "l",
        "ist"
      ],
      [
        "m",
        "its"
      ],
      [
        "m",
        "ust"
      ],
      [
        "m",
        "ies"
      ],
      [
        "n",
        "aught"
      ],
      [
        "o",
        "ath"
      ],
      [
        "p",
        "ose"
      ],
      [
        "t",
        "ou"
      ],
      [
        "t",
        "ent"
      ],
      [
        "t",
        "ion"
      ],
      [
        "u",
        "ous"
      ],
      [
        "w",
        "ant"
      ],
      [
        "”",
        ";"
      ],
      [
        "th",
        "ority"
      ],
      [
        "in",
        "v"
      ],
      [
        "in",
        "ter"
      ],
      [
        "is",
        "ion"
      ],
      [
        "en",
        "ance"
      ],
      [
        "st",
        "re"
      ],
      [
        "st",
        "enance"
      ],
      [
        "ar",
        "y"
      ],
      [
        "he",
        "ll"
      ],
      [
        "he",
        "ed"
      ],
      [
        "he",
        "ads"
      ],
      [
        "de",
        "th"
      ],
      [
        "ver",
        "t"
      ],
      [
        "are",
        "r"
      ],
      [
        "ion",
        "ed"
      ],
      [
        "do",
        "th"
      ],
      [
        "me",
        "et"
      ],
      [
        "beli",
        "ed"
      ],
      [
        "op",
        "en"
      ],
      [
        "so",
        "on"
      ],
      [
        "com",
        "ing"
      ],
      [
        "ear",
        "s"
      ],
      [
        "su",
        "stenance"
      ],
      [
        "ac",
        "ed"
      ],
      [
        "il",
        "ing"
      ],
      [
        "ul",
        "t"
      ],
      [
        "tr",
        "ans"
      ],
      [
        "ma",
        "le"
      ],
      [
        "ma",
        "kes"
      ],
      [
        "dis",
        "belief"
      ],
      [
        "know",
        "n"
      ],
      [
        "go",
        "ing"
      ],
      [
        "turn",
        "s"
      ],
      [
        "wor",
        "k"
      ],
      [
        "ne",
        "w"
      ],
      [
        "pl",
        "ain"
      ],
      [
        "ck",
        "ed"
      ],
      [
        "po",
        "cr"
      ],
      [
        "cl",
        "ay"
      ],
      [
        "per",
        "i"
      ],
      [
        "comm",
        "un"
      ],
      [
        "whe",
        "ther"
      ],
      [
        "mo",
        "ve"
      ],
      [
        "wat",
        "ch"
      ],
      [
        "tim",
        "es"
      ],
      [
        "sin",
        "s"
      ],
      [
        "au",
        "thority"
      ],
      [
        "ra",
        "ther"
      ],
      [
        "prov",
        "ided"
      ],
      [
        "di",
        "e"
      ],
      [
        "sub",
        "ject"
      ],
      [
        "disbelieve",
        "d"
      ],
      [
        "Is",
        "ra"
      ],
      [
        "send",
        "s"
      ],
      [
        "gre",
        "ss"
      ],
      [
        "ign",
        "or"
      ],
      [
        "pass",
        "ed"
      ],
      [
        "word",
        "s"
      ],
      [
        "Ex",
        "alted"
      ],
      [
        "Sha",
        "ll"
      ],
      [
        "pos",
        "sess"
      ],
      [
        "fru",
        "its"
      ],
      [
        "theis",
        "m"
      ],
      [
        "inf",
        "ide"
      ],
      [
        "suc",
        "cess"
      ],
      [
        "ste",
        "ad"
      ],
      [
        "bir",
        "ds"
      ],
      [
        "morn",
        "ing"
      ],
      [
        "seiz",
        "ed"
      ],
      [
        "reck",
        "oning"
      ],
      [
        "guil",
        "ty"
      ],
      [
        "Jose",
        "ph"
      ],
      [
        "hy",
        "pocr"
      ],
      [
        "?",
        "'"
      ],
      [
        "B",
        "la"
      ],
      [
        "C",
        "er"
      ],
      [
        "D",
        "id"
      ],
      [
        "E",
        "ven"
      ],
      [
        "H",
        "ouse"
      ],
      [
        "K",
        "or"
      ],
      [
        "M",
        "o"
      ],
      [
        "M",
        "on"
      ],
      [
        "M",
        "us"
      ],
      [
        "P",
        "ath"
      ],
      [
        "T",
        "ru"
      ],
      [
        "Y",
        "e"
      ],
      [
        "a",
        "ight"
      ],
      [
        "b",
        "and"
      ],
      [
        "b",
        "ount"
      ],
      [
        "b",
        "ounty"
      ],
      [
        "d",
        "ri"
      ],
      [
        "d",
        "read"
      ],
      [
        "f",
        "s"
      ],
      [
        "f",
        "le"
      ],
      [
        "f",
        "low"
      ],
      [
        "g",
        "ment"
      ],
      [
        "h",
        "ou"
      ],
      [
        "h",
        "id"
      ],
      [
        "h",
        "ur"
      ],
      [
        "h",
        "op"
      ],
      [
        "i",
        "red"
      ],
      [
        "k",
        "ed"
      ],
      [
        "k",
        "no"
      ],
      [
        "l",
        "ast"
      ],
      [
        "l",
        "awful"
      ],
      [
        "n",
        "ed"
      ],
      [
        "n",
        "umber"
      ],
      [
        "o",
        "theism"
      ],
      [
        "r",
        "at"
      ],
      [
        "r",
        "ist"
      ],
      [
        "s",
        "ed"
      ],
      [
        "s",
        "po"
      ],
      [
        "u",
        "ght"
      ],
      [
        "u",
        "ck"
      ],
      [
        "v",
        "ain"
      ],
      [
        "w",
        "ind"
      ],
      [
        "y",
        "at"
      ],
      [
        "re",
        "sp"
      ],
      [
        "ou",
        "d"
      ],
      [
        "or",
        "dered"
      ],
      [
        "on",
        "s"
      ],
      [
        "er",
        "y"
      ],
      [
        "be",
        "a"
      ],
      [
        "se",
        "a"
      ],
      [
        "se",
        "cre"
      ],
      [
        "st",
        "ate"
      ],
      [
        "ar",
        "k"
      ],
      [
        "ar",
        "ound"
      ],
      [
        "de",
        "f"
      ],
      [
        "de",
        "s"
      ],
      [
        "de",
        "ad"
      ],
      [
        "de",
        "live"
      ],
      [
        "for",
        "giving"
      ],
      [
        "li",
        "ms"
      ],
      [
        "who",
        "soever"
      ],
      [
        "as",
        "ure"
      ],
      [
        "as",
        "cri"
      ],
      [
        "we",
        "th"
      ],
      [
        "ch",
        "ie"
      ],
      [
        "their",
        "s"
      ],
      [
        "un",
        "less"
      ],
      [
        "pr",
        "iv"
      ],
      [
        "beli",
        "ever"
      ],
      [
        "ad",
        "orn"
      ],
      [
        "ad",
        "mit"
      ],
      [
        "Th",
        "r"
      ],
      [
        "il",
        "ed"
      ],
      [
        "dis",
        "tre"
      ],
      [
        "Wh",
        "ich"
      ],
      [
        "ex",
        "c"
      ],
      [
        "ex",
        "ce"
      ],
      [
        "wor",
        "ks"
      ],
      [
        "te",
        "red"
      ],
      [
        "ev",
        "ous"
      ],
      [
        "pre",
        "ss"
      ],
      [
        "pl",
        "an"
      ],
      [
        "pl",
        "ot"
      ],
      [
        "whom",
        "ever"
      ],
      [
        "ck",
        "s"
      ],
      [
        "po",
        "or"
      ],
      [
        "hamm",
        "ed"
      ],
      [
        "qu",
        "al"
      ],
      [
        "wrong",
        "ed"
      ],
      [
        "wrong",
        "doers"
      ],
      [
        "where",
        "as"
      ],
      [
        "ob",
        "serve"
      ],
      [
        "faith",
        "ful"
      ],
      [
        "ene",
        "my"
      ],
      [
        "tre",
        "e"
      ],
      [
        "ra",
        "ised"
      ],
      [
        "orn",
        "am"
      ],
      [
        "cr",
        "y"
      ],
      [
        "prov",
        "ision"
      ],
      [
        "di",
        "vers"
      ],
      [
        "ro",
        "g"
      ],
      [
        "la",
        "me"
      ],
      [
        "help",
        "ed"
      ],
      [
        "bre",
        "ak"
      ],
      [
        "bre",
        "asts"
      ],
      [
        "guard",
        "ed"
      ],
      [
        "gard",
        "ens"
      ],
      [
        "repent",
        "ance"
      ],
      [
        "dev",
        "il"
      ],
      [
        "car",
        "ry"
      ],
      [
        "kill",
        "ed"
      ],
      [
        "reject",
        "ed"
      ],
      [
        "Ch",
        "rist"
      ],
      [
        "char",
        "ity"
      ],
      [
        "magi",
        "ci"
      ],
      [
        "full",
        "y"
      ],
      [
        "disput",
        "e"
      ],
      [
        "Ar",
        "ab"
      ],
      [
        "Gr",
        "acious"
      ],
      [
        "inven",
        "t"
      ],
      [
        "stay",
        "ed"
      ],
      [
        "proof",
        "s"
      ],
      [
        "essa",
        "ge"
      ],
      [
        "Islam",
        "ic"
      ],
      [
        "Se",
        "e"
      ],
      [
        "wis",
        "dom"
      ],
      [
        "aff",
        "li"
      ],
      [
        "paren",
        "ts"
      ],
      [
        "virt",
        "uous"
      ],
      [
        "Sign",
        "s"
      ],
      [
        "trans",
        "gress"
      ],
      [
        "Isra",
        "el"
      ],
      [
        "ignor",
        "ance"
      ],
      [
        "Cer",
        "tainly"
      ],
      [
        "Mo",
        "hammed"
      ],
      [
        "Mon",
        "otheism"
      ],
      [
        "Mus",
        "lims"
      ],
      [
        "hou",
        "ses"
      ],
      [
        "kno",
        "weth"
      ],
      [
        "delive",
        "red"
      ],
      [
        "distre",
        "ss"
      ],
      [
        "!",
        "\""
      ],
      [
        "A",
        "re"
      ],
      [
        "A",
        "yat"
      ],
      [
        "E",
        "n"
      ],
      [
        "E",
        "very"
      ],
      [
        "F",
        "a"
      ],
      [
        "G",
        "o"
      ],
      [
        "L",
        "ast"
      ],
      [
        "L",
        "et"
      ],
      [
        "M",
        "oo"
      ],
      [
        "N",
        "or"
      ],
      [
        "S",
        "aid"
      ],
      [
        "a",
        "li"
      ],
      [
        "b",
        "od"
      ],
      [
        "c",
        "li"
      ],
      [
        "c",
        "are"
      ],
      [
        "d",
        "ark"
      ],
      [
        "f",
        "ur"
      ],
      [
        "f",
        "am"
      ],
      [
        "f",
        "ill"
      ],
      [
        "f",
        "ound"
      ],
      [
        "f",
        "ice"
      ],
      [
        "f",
        "aces"
      ],
      [
        "g",
        "er"
      ],
      [
        "g",
        "le"
      ],
      [
        "g",
        "one"
      ],
      [
        "h",
        "or"
      ],
      [
        "h",
        "us"
      ],
      [
        "h",
        "ost"
      ],
      [
        "i",
        "an"
      ],
      [
        "i",
        "le"
      ],
      [
        "i",
        "li"
      ],
      [
        "i",
        "ck"
      ],
      [
        "k",
        "new"
      ],
      [
        "l",
        "om"
      ],
      [
        "l",
        "ay"
      ],
      [
        "l",
        "ost"
      ],
      [
        "m",
        "pt"
      ],
      [
        "n",
        "ers"
      ],
      [
        "p",
        "ag"
      ],
      [
        "p",
        "ure"
      ],
      [
        "p",
        "ens"
      ],
      [
        "t",
        "al"
      ],
      [
        "t",
        "ong"
      ],
      [
        "t",
        "led"
      ],
      [
        "t",
        "ask"
      ],
      [
        "u",
        "b"
      ],
      [
        "w",
        "er"
      ],
      [
        "w",
        "aste"
      ],
      [
        "th",
        "reat"
      ],
      [
        "th",
        "rew"
      ],
      [
        "an",
        "ions"
      ],
      [
        "re",
        "co"
      ],
      [
        "re",
        "gard"
      ],
      [
        "re",
        "move"
      ],
      [
        "in",
        "k"
      ],
      [
        "in",
        "sp"
      ],
      [
        "in",
        "ten"
      ],
      [
        "ll",
        "ed"
      ],
      [
        "and",
        "er"
      ],
      [
        "en",
        "comp"
      ],
      [
        "or",
        "ious"
      ],
      [
        "at",
        "ing"
      ],
      [
        "at",
        "tle"
      ],
      [
        "ha",
        "ving"
      ],
      [
        "se",
        "c"
      ],
      [
        "se",
        "ven"
      ],
      [
        "st",
        "ep"
      ],
      [
        "wi",
        "ves"
      ],
      [
        "ar",
        "n"
      ],
      [
        "ar",
        "rog"
      ],
      [
        "it",
        "an"
      ],
      [
        "it",
        "ion"
      ],
      [
        "de",
        "st"
      ],
      [
        "de",
        "ar"
      ],
      [
        "de",
        "ce"
      ],
      [
        "de",
        "cl"
      ],
      [
        "de",
        "cre"
      ],
      [
        "de",
        "part"
      ],
      [
        "for",
        "ward"
      ],
      [
        "for",
        "ged"
      ],
      [
        "li",
        "ed"
      ],
      [
        "li",
        "mits"
      ],
      [
        "ir",
        "it"
      ],
      [
        "will",
        "ed"
      ],
      [
        "id",
        "er"
      ],
      [
        "id",
        "ols"
      ],
      [
        "ent",
        "ered"
      ],
      [
        "im",
        "age"
      ],
      [
        "We",
        "re"
      ],
      [
        "ch",
        "ose"
      ],
      [
        "ut",
        "ter"
      ],
      [
        "pr",
        "ophe"
      ],
      [
        "me",
        "re"
      ],
      [
        "me",
        "asure"
      ],
      [
        "al",
        "ty"
      ],
      [
        "fo",
        "od"
      ],
      [
        "fo",
        "ot"
      ],
      [
        "ri",
        "ble"
      ],
      [
        "if",
        "ic"
      ],
      [
        "ke",
        "pt"
      ],
      [
        "ac",
        "hes"
      ],
      [
        "there",
        "d"
      ],
      [
        "si",
        "ck"
      ],
      [
        "ast",
        "er"
      ],
      [
        "know",
        "ing"
      ],
      [
        "ca",
        "se"
      ],
      [
        "aw",
        "n"
      ],
      [
        "fa",
        "ir"
      ],
      [
        "fe",
        "male"
      ],
      [
        "ag",
        "es"
      ],
      [
        "pro",
        "ach"
      ],
      [
        "con",
        "d"
      ],
      [
        "con",
        "s"
      ],
      [
        "con",
        "fer"
      ],
      [
        "see",
        "m"
      ],
      [
        "pre",
        "pare"
      ],
      [
        "So",
        "lom"
      ],
      [
        "pl",
        "ed"
      ],
      [
        "pl",
        "aced"
      ],
      [
        "den",
        "ied"
      ],
      [
        "ap",
        "proach"
      ],
      [
        "cl",
        "o"
      ],
      [
        "et",
        "y"
      ],
      [
        "than",
        "k"
      ],
      [
        "comm",
        "it"
      ],
      [
        "ic",
        "es"
      ],
      [
        "way",
        "s"
      ],
      [
        "mo",
        "on"
      ],
      [
        "mo",
        "ck"
      ],
      [
        "merc",
        "iful"
      ],
      [
        "cer",
        "tain"
      ],
      [
        "cri",
        "ed"
      ],
      [
        "ask",
        "ed"
      ],
      [
        "sl",
        "ain"
      ],
      [
        "where",
        "in"
      ],
      [
        "ob",
        "lig"
      ],
      [
        "just",
        "ice"
      ],
      [
        "warn",
        "er"
      ],
      [
        "warn",
        "ing"
      ],
      [
        "back",
        "s"
      ],
      [
        "Be",
        "hold"
      ],
      [
        "vi",
        "ol"
      ],
      [
        "set",
        "tled"
      ],
      [
        "fu",
        "ge"
      ],
      [
        "gri",
        "evous"
      ],
      [
        "understand",
        "ing"
      ],
      [
        "dwell",
        "ers"
      ],
      [
        "gard",
        "en"
      ],
      [
        "hap",
        "ly"
      ],
      [
        "burden",
        "s"
      ],
      [
        "lead",
        "ers"
      ],
      [
        "suf",
        "fer"
      ],
      [
        "apostle",
        "s"
      ],
      [
        "Sha",
        "itan"
      ],
      [
        "ga",
        "ther"
      ],
      [
        "ga",
        "thered"
      ],
      [
        "cour",
        "se"
      ],
      [
        "ting",
        "u"
      ],
      [
        "fru",
        "it"
      ],
      [
        "Ch",
        "ildren"
      ],
      [
        "offer",
        "ing"
      ],
      [
        "magi",
        "c"
      ],
      [
        "..",
        "."
      ],
      [
        "evid",
        "ence"
      ],
      [
        "remind",
        "er"
      ],
      [
        "incre",
        "ase"
      ],
      [
        "enc",
        "es"
      ],
      [
        "obedi",
        "ent"
      ],
      [
        "pi",
        "ety"
      ],
      [
        "pra",
        "ise"
      ],
      [
        "prop",
        "er"
      ],
      [
        "preven",
        "ted"
      ],
      [
        "corrup",
        "tion"
      ],
      [
        "bond",
        "men"
      ],
      [
        "inter",
        "cess"
      ],
      [
        "hypocr",
        "ites"
      ],
      [
        "hur",
        "t"
      ],
      [
        "hop",
        "e"
      ],
      [
        "Thr",
        "one"
      ],
      [
        "exc",
        "use"
      ],
      [
        "ornam",
        "ents"
      ],
      [
        "Christ",
        "ians"
      ],
      [
        "Moo",
        "sa"
      ],
      [
        "hus",
        "band"
      ],
      [
        "reco",
        "gn"
      ],
      [
        "prepare",
        "d"
      ],
      [
        "Solom",
        "on"
      ],
      [
        ")",
        "?"
      ],
      [
        ".",
        "),"
      ],
      [
        "?",
        "’"
      ],
      [
        "A",
        "c"
      ],
      [
        "A",
        "n"
      ],
      [
        "D",
        "av"
      ],
      [
        "G",
        "e"
      ],
      [
        "I",
        "br"
      ],
      [
        "L",
        "i"
      ],
      [
        "N",
        "a"
      ],
      [
        "N",
        "ever"
      ],
      [
        "P",
        "er"
      ],
      [
        "P",
        "ower"
      ],
      [
        "S",
        "t"
      ],
      [
        "T",
        "ham"
      ],
      [
        "W",
        "o"
      ],
      [
        "W",
        "or"
      ],
      [
        "W",
        "ill"
      ],
      [
        "a",
        "ses"
      ],
      [
        "a",
        "king"
      ],
      [
        "a",
        "verse"
      ],
      [
        "b",
        "ow"
      ],
      [
        "b",
        "urn"
      ],
      [
        "c",
        "ing"
      ],
      [
        "c",
        "over"
      ],
      [
        "d",
        "den"
      ],
      [
        "d",
        "ust"
      ],
      [
        "d",
        "uty"
      ],
      [
        "e",
        "le"
      ],
      [
        "e",
        "qual"
      ],
      [
        "f",
        "ight"
      ],
      [
        "g",
        "es"
      ],
      [
        "g",
        "ul"
      ],
      [
        "h",
        "en"
      ],
      [
        "h",
        "om"
      ],
      [
        "i",
        "eve"
      ],
      [
        "l",
        "ater"
      ],
      [
        "m",
        "ir"
      ],
      [
        "m",
        "uch"
      ],
      [
        "m",
        "ult"
      ],
      [
        "p",
        "it"
      ],
      [
        "p",
        "our"
      ],
      [
        "p",
        "ort"
      ],
      [
        "r",
        "ain"
      ],
      [
        "t",
        "in"
      ],
      [
        "u",
        "de"
      ],
      [
        "u",
        "ct"
      ],
      [
        "u",
        "red"
      ],
      [
        "v",
        "y"
      ],
      [
        "v",
        "an"
      ],
      [
        "v",
        "in"
      ],
      [
        "v",
        "ar"
      ],
      [
        "w",
        "ants"
      ],
      [
        "th",
        "s"
      ],
      [
        "th",
        "ree"
      ],
      [
        "an",
        "ci"
      ],
      [
        "re",
        "f"
      ],
      [
        "re",
        "be"
      ],
      [
        "re",
        "str"
      ],
      [
        "re",
        "qu"
      ],
      [
        "re",
        "jo"
      ],
      [
        "in",
        "her"
      ],
      [
        "in",
        "tent"
      ],
      [
        "ou",
        "red"
      ],
      [
        "ve",
        "y"
      ],
      [
        "en",
        "er"
      ],
      [
        "en",
        "ess"
      ],
      [
        "or",
        "ph"
      ],
      [
        "at",
        "tract"
      ],
      [
        "on",
        "t"
      ],
      [
        "be",
        "g"
      ],
      [
        "be",
        "came"
      ],
      [
        "be",
        "comes"
      ],
      [
        "ha",
        "bit"
      ],
      [
        "se",
        "es"
      ],
      [
        "st",
        "er"
      ],
      [
        "st",
        "ars"
      ],
      [
        "le",
        "m"
      ],
      [
        "le",
        "ast"
      ],
      [
        "le",
        "ft"
      ],
      [
        "de",
        "c"
      ],
      [
        "de",
        "vi"
      ],
      [
        "ah",
        "im"
      ],
      [
        "ir",
        "on"
      ],
      [
        "ir",
        "ing"
      ],
      [
        "id",
        "ol"
      ],
      [
        "ent",
        "ly"
      ],
      [
        "ow",
        "ed"
      ],
      [
        "ly",
        "theis"
      ],
      [
        "are",
        "d"
      ],
      [
        "ce",
        "al"
      ],
      [
        "ch",
        "os"
      ],
      [
        "ur",
        "ing"
      ],
      [
        "un",
        "aware"
      ],
      [
        "with",
        "in"
      ],
      [
        "with",
        "draw"
      ],
      [
        "ord",
        "ained"
      ],
      [
        "sa",
        "me"
      ],
      [
        "sa",
        "fe"
      ],
      [
        "me",
        "an"
      ],
      [
        "The",
        "ir"
      ],
      [
        "al",
        "ong"
      ],
      [
        "God",
        "wary"
      ],
      [
        "ri",
        "er"
      ],
      [
        "ear",
        "ned"
      ],
      [
        "sha",
        "re"
      ],
      [
        "am",
        "ple"
      ],
      [
        "us",
        "ion"
      ],
      [
        "il",
        "gr"
      ],
      [
        "il",
        "ity"
      ],
      [
        "tr",
        "ave"
      ],
      [
        "ma",
        "king"
      ],
      [
        "there",
        "from"
      ],
      [
        "there",
        "after"
      ],
      [
        "ment",
        "s"
      ],
      [
        "our",
        "selves"
      ],
      [
        "Wh",
        "om"
      ],
      [
        "br",
        "ings"
      ],
      [
        "br",
        "others"
      ],
      [
        "were",
        "d"
      ],
      [
        "oo",
        "l"
      ],
      [
        "ne",
        "cks"
      ],
      [
        "te",
        "mpt"
      ],
      [
        "con",
        "side"
      ],
      [
        "con",
        "vey"
      ],
      [
        "con",
        "ceal"
      ],
      [
        "any",
        "one"
      ],
      [
        "ta",
        "ught"
      ],
      [
        "pl",
        "ay"
      ],
      [
        "some",
        "one"
      ],
      [
        "sign",
        "ed"
      ],
      [
        "cl",
        "ose"
      ],
      [
        "per",
        "ceive"
      ],
      [
        "over",
        "look"
      ],
      [
        "than",
        "ks"
      ],
      [
        "ans",
        "wer"
      ],
      [
        "ans",
        "wered"
      ],
      [
        "fear",
        "ing"
      ],
      [
        "str",
        "ay"
      ],
      [
        "str",
        "uck"
      ],
      [
        "follow",
        "s"
      ],
      [
        "follow",
        "ers"
      ],
      [
        "pray",
        "ed"
      ],
      [
        "ship",
        "s"
      ],
      [
        "Pr",
        "o"
      ],
      [
        "sou",
        "nd"
      ],
      [
        "cle",
        "an"
      ],
      [
        "creat",
        "ures"
      ],
      [
        "even",
        "ing"
      ],
      [
        "side",
        "s"
      ],
      [
        "part",
        "ners"
      ],
      [
        "warn",
        "ed"
      ],
      [
        "ange",
        "l"
      ],
      [
        "There",
        "fore"
      ],
      [
        "world",
        "ly"
      ],
      [
        "As",
        "k"
      ],
      [
        "ene",
        "mies"
      ],
      [
        "guide",
        "s"
      ],
      [
        "Merc",
        "y"
      ],
      [
        "kind",
        "s"
      ],
      [
        "res",
        "urre"
      ],
      [
        "vi",
        "ce"
      ],
      [
        "ro",
        "ads"
      ],
      [
        "save",
        "d"
      ],
      [
        "bless",
        "ing"
      ],
      [
        "revel",
        "ation"
      ],
      [
        "On",
        "eness"
      ],
      [
        "righteous",
        "ness"
      ],
      [
        "Pe",
        "ace"
      ],
      [
        "ond",
        "er"
      ],
      [
        "desi",
        "re"
      ],
      [
        "unjust",
        "ly"
      ],
      [
        "pur",
        "pose"
      ],
      [
        "patient",
        "ly"
      ],
      [
        "bl",
        "is"
      ],
      [
        "na",
        "me"
      ],
      [
        "Beli",
        "eve"
      ],
      [
        "allow",
        "ed"
      ],
      [
        "hon",
        "or"
      ],
      [
        "ie",
        "ld"
      ],
      [
        "tri",
        "but"
      ],
      [
        "evid",
        "ences"
      ],
      [
        "pers",
        "on"
      ],
      [
        "establ",
        "ish"
      ],
      [
        "establ",
        "ished"
      ],
      [
        "cur",
        "sed"
      ],
      [
        "hum",
        "ili"
      ],
      [
        "spr",
        "ing"
      ],
      [
        "tou",
        "ched"
      ],
      [
        "stead",
        "fast"
      ],
      [
        "Bla",
        "ze"
      ],
      [
        "Kor",
        "an"
      ],
      [
        "bount",
        "ies"
      ],
      [
        "dread",
        "ful"
      ],
      [
        "last",
        "ing"
      ],
      [
        "resp",
        "ite"
      ],
      [
        "bea",
        "uty"
      ],
      [
        "secre",
        "t"
      ],
      [
        "ascri",
        "be"
      ],
      [
        "magici",
        "an"
      ],
      [
        "fam",
        "ily"
      ],
      [
        "tal",
        "k"
      ],
      [
        "sec",
        "ure"
      ],
      [
        "arrog",
        "ant"
      ],
      [
        "cons",
        "ider"
      ],
      [
        "mock",
        "ery"
      ],
      [
        "Ge",
        "hen"
      ],
      [
        "Ibr",
        "ahim"
      ],
      [
        "Li",
        "ke"
      ],
      [
        "Tham",
        "ud"
      ],
      [
        "Wo",
        "e"
      ],
      [
        "mir",
        "ac"
      ],
      [
        "lytheis",
        "ts"
      ],
      [
        "chos",
        "en"
      ],
      [
        "ilgr",
        "image"
      ],
      [
        "conside",
        "red"
      ],
      [
        "Gehen",
        "na"
      ],
      [
        "!",
        "'"
      ],
      [
        "\"",
        "("
      ],
      [
        ")",
        "]."
      ],
      [
        ",",
        "-"
      ],
      [
        "A",
        "ar"
      ],
      [
        "A",
        "ble"
      ],
      [
        "F",
        "ear"
      ],
      [
        "H",
        "ar"
      ],
      [
        "J",
        "ac"
      ],
      [
        "M",
        "a"
      ],
      [
        "S",
        "h"
      ],
      [
        "S",
        "tr"
      ],
      [
        "S",
        "ab"
      ],
      [
        "S",
        "ome"
      ],
      [
        "S",
        "uch"
      ],
      [
        "T",
        "aste"
      ],
      [
        "T",
        "ake"
      ],
      [
        "W",
        "he"
      ],
      [
        "W",
        "it"
      ],
      [
        "W",
        "ord"
      ],
      [
        "W",
        "ould"
      ],
      [
        "a",
        "ther"
      ],
      [
        "a",
        "vert"
      ],
      [
        "b",
        "s"
      ],
      [
        "b",
        "ook"
      ],
      [
        "b",
        "ones"
      ],
      [
        "b",
        "lame"
      ],
      [
        "c",
        "u"
      ],
      [
        "c",
        "ation"
      ],
      [
        "c",
        "end"
      ],
      [
        "c",
        "ities"
      ],
      [
        "c",
        "ool"
      ],
      [
        "d",
        "if"
      ],
      [
        "d",
        "ate"
      ],
      [
        "d",
        "rew"
      ],
      [
        "e",
        "f"
      ],
      [
        "e",
        "as"
      ],
      [
        "e",
        "ch"
      ],
      [
        "f",
        "ut"
      ],
      [
        "f",
        "our"
      ],
      [
        "f",
        "its"
      ],
      [
        "g",
        "ain"
      ],
      [
        "g",
        "ate"
      ],
      [
        "g",
        "ush"
      ],
      [
        "h",
        "i"
      ],
      [
        "h",
        "end"
      ],
      [
        "h",
        "igh"
      ],
      [
        "i",
        "er"
      ],
      [
        "i",
        "ers"
      ],
      [
        "j",
        "j"
      ],
      [
        "l",
        "f"
      ],
      [
        "l",
        "ing"
      ],
      [
        "l",
        "ose"
      ],
      [
        "l",
        "ad"
      ],
      [
        "l",
        "ower"
      ],
      [
        "l",
        "um"
      ],
      [
        "m",
        "or"
      ],
      [
        "m",
        "un"
      ],
      [
        "m",
        "ain"
      ],
      [
        "m",
        "br"
      ],
      [
        "m",
        "other"
      ],
      [
        "m",
        "ind"
      ],
      [
        "m",
        "essage"
      ],
      [
        "n",
        "ar"
      ],
      [
        "n",
        "es"
      ],
      [
        "n",
        "am"
      ],
      [
        "o",
        "c"
      ],
      [
        "p",
        "s"
      ],
      [
        "p",
        "ast"
      ],
      [
        "p",
        "ilgrimage"
      ],
      [
        "q",
        "un"
      ],
      [
        "r",
        "an"
      ],
      [
        "r",
        "is"
      ],
      [
        "r",
        "ans"
      ],
      [
        "r",
        "ound"
      ],
      [
        "s",
        "m"
      ],
      [
        "s",
        "wi"
      ],
      [
        "s",
        "ur"
      ],
      [
        "s",
        "ion"
      ],
      [
        "t",
        "w"
      ],
      [
        "t",
        "un"
      ],
      [
        "u",
        "pr"
      ],
      [
        "v",
        "a"
      ],
      [
        "v",
        "all"
      ],
      [
        "w",
        "re"
      ],
      [
        "w",
        "anted"
      ],
      [
        "x",
        "ic"
      ],
      [
        "y",
        "ears"
      ],
      [
        "y",
        "ield"
      ],
      [
        "z",
        "ing"
      ],
      [
        "re",
        "gre"
      ],
      [
        "re",
        "fuge"
      ],
      [
        "re",
        "gul"
      ],
      [
        "in",
        "cl"
      ],
      [
        "in",
        "habit"
      ],
      [
        "ll",
        "y"
      ],
      [
        "ve",
        "d"
      ],
      [
        "ve",
        "red"
      ],
      [
        "and",
        "ed"
      ],
      [
        "is",
        "hes"
      ],
      [
        "en",
        "ough"
      ],
      [
        "at",
        "tain"
      ],
      [
        "at",
        "ive"
      ],
      [
        "at",
        "ory"
      ],
      [
        "to",
        "ck"
      ],
      [
        "wh",
        "y"
      ],
      [
        "wh",
        "ite"
      ],
      [
        "of",
        "it"
      ],
      [
        "be",
        "asts"
      ],
      [
        "be",
        "fall"
      ],
      [
        "st",
        "ren"
      ],
      [
        "wi",
        "lt"
      ],
      [
        "ar",
        "m"
      ],
      [
        "ar",
        "gu"
      ],
      [
        "he",
        "ld"
      ],
      [
        "he",
        "ad"
      ],
      [
        "it",
        "ing"
      ],
      [
        "it",
        "ude"
      ],
      [
        "le",
        "arn"
      ],
      [
        "de",
        "ceive"
      ],
      [
        "for",
        "get"
      ],
      [
        "li",
        "ct"
      ],
      [
        "li",
        "ving"
      ],
      [
        "li",
        "ked"
      ],
      [
        "who",
        "le"
      ],
      [
        "as",
        "h"
      ],
      [
        "as",
        "i"
      ],
      [
        "as",
        "ed"
      ],
      [
        "as",
        "ide"
      ],
      [
        "as",
        "ses"
      ],
      [
        "as",
        "under"
      ],
      [
        "id",
        "st"
      ],
      [
        "are",
        "st"
      ],
      [
        "ch",
        "an"
      ],
      [
        "ch",
        "ance"
      ],
      [
        "ur",
        "ity"
      ],
      [
        "sa",
        "ke"
      ],
      [
        "sa",
        "cri"
      ],
      [
        "do",
        "st"
      ],
      [
        "pr",
        "ofit"
      ],
      [
        "The",
        "irs"
      ],
      [
        "al",
        "s"
      ],
      [
        "al",
        "ter"
      ],
      [
        "al",
        "ity"
      ],
      [
        "al",
        "though"
      ],
      [
        "ad",
        "vers"
      ],
      [
        "ad",
        "mon"
      ],
      [
        "op",
        "press"
      ],
      [
        "ri",
        "ed"
      ],
      [
        "ain",
        "ted"
      ],
      [
        "so",
        "l"
      ],
      [
        "so",
        "lem"
      ],
      [
        "if",
        "ies"
      ],
      [
        "if",
        "ied"
      ],
      [
        "com",
        "ple"
      ],
      [
        "su",
        "pre"
      ],
      [
        "su",
        "dden"
      ],
      [
        "what",
        "soever"
      ],
      [
        "am",
        "s"
      ],
      [
        "ter",
        "n"
      ],
      [
        "il",
        "s"
      ],
      [
        "tr",
        "ol"
      ],
      [
        "there",
        "by"
      ],
      [
        "ment",
        "ion"
      ],
      [
        "sh",
        "own"
      ],
      [
        "sh",
        "ort"
      ],
      [
        "dis",
        "like"
      ],
      [
        "dis",
        "aster"
      ],
      [
        "dis",
        "tingu"
      ],
      [
        "dis",
        "obedient"
      ],
      [
        "our",
        "s"
      ],
      [
        "fore",
        "fathers"
      ],
      [
        "ex",
        "is"
      ],
      [
        "fa",
        "iled"
      ],
      [
        "fe",
        "el"
      ],
      [
        "wor",
        "st"
      ],
      [
        "ne",
        "gle"
      ],
      [
        "Him",
        "self"
      ],
      [
        "gr",
        "ain"
      ],
      [
        "gr",
        "aves"
      ],
      [
        "gr",
        "anted"
      ],
      [
        "te",
        "th"
      ],
      [
        "te",
        "ach"
      ],
      [
        "pro",
        "long"
      ],
      [
        "pro",
        "hi"
      ],
      [
        "con",
        "firm"
      ],
      [
        "see",
        "king"
      ],
      [
        "ta",
        "king"
      ],
      [
        "ta",
        "kes"
      ],
      [
        "pre",
        "hend"
      ],
      [
        "whom",
        "soever"
      ],
      [
        "oun",
        "ce"
      ],
      [
        "hear",
        "ing"
      ],
      [
        "ho",
        "ly"
      ],
      [
        "ho",
        "ard"
      ],
      [
        "po",
        "lytheists"
      ],
      [
        "every",
        "one"
      ],
      [
        "ap",
        "art"
      ],
      [
        "per",
        "severe"
      ],
      [
        "har",
        "den"
      ],
      [
        "ans",
        "ed"
      ],
      [
        "wr",
        "it"
      ],
      [
        "mb",
        "ly"
      ],
      [
        "str",
        "ong"
      ],
      [
        "str",
        "aight"
      ],
      [
        "into",
        "xic"
      ],
      [
        "ic",
        "ations"
      ],
      [
        "qu",
        "ainted"
      ],
      [
        "Pr",
        "ost"
      ],
      [
        "No",
        "t"
      ],
      [
        "cle",
        "ansed"
      ],
      [
        "wrong",
        "doing"
      ],
      [
        "Do",
        "es"
      ],
      [
        "even",
        "t"
      ],
      [
        "When",
        "ever"
      ],
      [
        "act",
        "ion"
      ],
      [
        "act",
        "ions"
      ],
      [
        "Who",
        "ever"
      ],
      [
        "cri",
        "bed"
      ],
      [
        "where",
        "on"
      ],
      [
        "where",
        "ver"
      ],
      [
        "comp",
        "anions"
      ],
      [
        "faith",
        "less"
      ],
      [
        "less",
        "ons"
      ],
      [
        "world",
        "s"
      ],
      [
        "dr",
        "op"
      ],
      [
        "dr",
        "ink"
      ],
      [
        "thr",
        "one"
      ],
      [
        "res",
        "id"
      ],
      [
        "wo",
        "lf"
      ],
      [
        "bey",
        "ond"
      ],
      [
        "tre",
        "as"
      ],
      [
        "clear",
        "ly"
      ],
      [
        "rep",
        "lied"
      ],
      [
        "wom",
        "an"
      ],
      [
        "hast",
        "en"
      ],
      [
        "obey",
        "s"
      ],
      [
        "great",
        "er"
      ],
      [
        "spe",
        "ech"
      ],
      [
        "mis",
        "sion"
      ],
      [
        "guard",
        "ian"
      ],
      [
        "light",
        "ened"
      ],
      [
        "acc",
        "ord"
      ],
      [
        "serv",
        "ant"
      ],
      [
        "dwell",
        "ing"
      ],
      [
        "rem",
        "ain"
      ],
      [
        "fav",
        "ors"
      ],
      [
        "thin",
        "e"
      ],
      [
        "hap",
        "s"
      ],
      [
        "hap",
        "pens"
      ],
      [
        "stri",
        "ke"
      ],
      [
        "stri",
        "king"
      ],
      [
        "dev",
        "our"
      ],
      [
        "burden",
        "ed"
      ],
      [
        "Re",
        "me"
      ],
      [
        "rec",
        "ord"
      ],
      [
        "rec",
        "ited"
      ],
      [
        "suf",
        "fice"
      ],
      [
        "abo",
        "de"
      ],
      [
        "Ex",
        "cept"
      ],
      [
        "son",
        "s"
      ],
      [
        "pos",
        "ed"
      ],
      [
        "reach",
        "ed"
      ],
      [
        "treat",
        "y"
      ],
      [
        "inf",
        "lict"
      ],
      [
        "accept",
        "ed"
      ],
      [
        "receive",
        "d"
      ],
      [
        "judge",
        "ment"
      ],
      [
        "Where",
        "fore"
      ],
      [
        "remind",
        "ed"
      ],
      [
        "bar",
        "rier"
      ],
      [
        "sw",
        "er"
      ],
      [
        "please",
        "st"
      ],
      [
        "obedi",
        "ence"
      ],
      [
        "fic",
        "i"
      ],
      [
        "fic",
        "ent"
      ],
      [
        "hum",
        "ble"
      ],
      [
        "pal",
        "ms"
      ],
      [
        "run",
        "ning"
      ],
      [
        "spr",
        "ings"
      ],
      [
        "desp",
        "a"
      ],
      [
        "forgot",
        "ten"
      ],
      [
        "produ",
        "ce"
      ],
      [
        "disobey",
        "ed"
      ],
      [
        "need",
        "y"
      ],
      [
        "pres",
        "ence"
      ],
      [
        "quest",
        "ion"
      ],
      [
        "quest",
        "ioned"
      ],
      [
        "vict",
        "ory"
      ],
      [
        "vict",
        "orious"
      ],
      [
        "Gard",
        "en"
      ],
      [
        "Gard",
        "ens"
      ],
      [
        "Jud",
        "gment"
      ],
      [
        "cal",
        "f"
      ],
      [
        "list",
        "en"
      ],
      [
        "oath",
        "s"
      ],
      [
        "stre",
        "t"
      ],
      [
        "peri",
        "od"
      ],
      [
        "commun",
        "ications"
      ],
      [
        "subject",
        "ed"
      ],
      [
        "infide",
        "l"
      ],
      [
        "infide",
        "ls"
      ],
      [
        "Tru",
        "th"
      ],
      [
        "hid",
        "den"
      ],
      [
        "chie",
        "fs"
      ],
      [
        "adorn",
        "ment"
      ],
      [
        "Arab",
        "ic"
      ],
      [
        "bod",
        "y"
      ],
      [
        "dark",
        "ness"
      ],
      [
        "host",
        "s"
      ],
      [
        "pag",
        "ans"
      ],
      [
        "tong",
        "ue"
      ],
      [
        "insp",
        "ired"
      ],
      [
        "inten",
        "deth"
      ],
      [
        "encomp",
        "ass"
      ],
      [
        "step",
        "s"
      ],
      [
        "prophe",
        "t"
      ],
      [
        "pled",
        "ge"
      ],
      [
        "thank",
        "ful"
      ],
      [
        "oblig",
        "atory"
      ],
      [
        "suffer",
        "ing"
      ],
      [
        "Dav",
        "id"
      ],
      [
        "Na",
        "me"
      ],
      [
        "Wor",
        "ship"
      ],
      [
        "hom",
        "es"
      ],
      [
        "mult",
        "ip"
      ],
      [
        "ref",
        "use"
      ],
      [
        "inher",
        "it"
      ],
      [
        "resurre",
        "cted"
      ],
      [
        "mirac",
        "le"
      ],
      [
        "Aar",
        "on"
      ],
      [
        "Jac",
        "ob"
      ],
      [
        "Whe",
        "ther"
      ],
      [
        "Wit",
        "ness"
      ],
      [
        "mbr",
        "ance"
      ],
      [
        "vall",
        "ey"
      ],
      [
        "regre",
        "t"
      ],
      [
        "inhabit",
        "ants"
      ],
      [
        "stren",
        "g"
      ],
      [
        "deceive",
        "d"
      ],
      [
        "solem",
        "n"
      ],
      [
        "supre",
        "me"
      ],
      [
        "negle",
        "ct"
      ],
      [
        "'",
        ","
      ],
      [
        ",",
        "'"
      ],
      [
        ".",
        ")."
      ],
      [
        "A",
        "t"
      ],
      [
        "B",
        "ear"
      ],
      [
        "B",
        "ene"
      ],
      [
        "B",
        "low"
      ],
      [
        "B",
        "ounty"
      ],
      [
        "C",
        "an"
      ],
      [
        "C",
        "reat"
      ],
      [
        "D",
        "e"
      ],
      [
        "D",
        "aw"
      ],
      [
        "E",
        "m"
      ],
      [
        "E",
        "ver"
      ],
      [
        "G",
        "ive"
      ],
      [
        "H",
        "o"
      ],
      [
        "H",
        "and"
      ],
      [
        "H",
        "us"
      ],
      [
        "H",
        "igh"
      ],
      [
        "K",
        "ing"
      ],
      [
        "L",
        "a"
      ],
      [
        "L",
        "ight"
      ],
      [
        "L",
        "ook"
      ],
      [
        "M",
        "ay"
      ],
      [
        "M",
        "ut"
      ],
      [
        "M",
        "ad"
      ],
      [
        "M",
        "ount"
      ],
      [
        "M",
        "ary"
      ],
      [
        "M",
        "essage"
      ],
      [
        "N",
        "one"
      ],
      [
        "O",
        "ft"
      ],
      [
        "P",
        "en"
      ],
      [
        "P",
        "unish"
      ],
      [
        "R",
        "u"
      ],
      [
        "R",
        "ather"
      ],
      [
        "S",
        "p"
      ],
      [
        "S",
        "am"
      ],
      [
        "S",
        "up"
      ],
      [
        "S",
        "hu"
      ],
      [
        "S",
        "tock"
      ],
      [
        "T",
        "e"
      ],
      [
        "T",
        "u"
      ],
      [
        "W",
        "ith"
      ],
      [
        "Y",
        "u"
      ],
      [
        "Y",
        "es"
      ],
      [
        "a",
        "the"
      ],
      [
        "a",
        "like"
      ],
      [
        "a",
        "irs"
      ],
      [
        "b",
        "a"
      ],
      [
        "b",
        "o"
      ],
      [
        "b",
        "ent"
      ],
      [
        "b",
        "ad"
      ],
      [
        "b",
        "ath"
      ],
      [
        "b",
        "right"
      ],
      [
        "b",
        "lo"
      ],
      [
        "b",
        "oy"
      ],
      [
        "b",
        "ound"
      ],
      [
        "b",
        "attle"
      ],
      [
        "c",
        "ha"
      ],
      [
        "c",
        "es"
      ],
      [
        "c",
        "ir"
      ],
      [
        "c",
        "ent"
      ],
      [
        "c",
        "up"
      ],
      [
        "c",
        "attle"
      ],
      [
        "d",
        "u"
      ],
      [
        "d",
        "ire"
      ],
      [
        "d",
        "ows"
      ],
      [
        "d",
        "uring"
      ],
      [
        "e",
        "ye"
      ],
      [
        "e",
        "aves"
      ],
      [
        "e",
        "tern"
      ],
      [
        "f",
        "in"
      ],
      [
        "f",
        "ter"
      ],
      [
        "f",
        "il"
      ],
      [
        "f",
        "ish"
      ],
      [
        "f",
        "ate"
      ],
      [
        "g",
        "ar"
      ],
      [
        "g",
        "ener"
      ],
      [
        "h",
        "un"
      ],
      [
        "h",
        "ill"
      ],
      [
        "h",
        "ouse"
      ],
      [
        "i",
        "x"
      ],
      [
        "i",
        "ves"
      ],
      [
        "i",
        "bl"
      ],
      [
        "k",
        "in"
      ],
      [
        "l",
        "u"
      ],
      [
        "l",
        "an"
      ],
      [
        "m",
        "ou"
      ],
      [
        "m",
        "and"
      ],
      [
        "m",
        "ad"
      ],
      [
        "m",
        "one"
      ],
      [
        "m",
        "end"
      ],
      [
        "m",
        "ort"
      ],
      [
        "n",
        "on"
      ],
      [
        "n",
        "ations"
      ],
      [
        "o",
        "ve"
      ],
      [
        "o",
        "od"
      ],
      [
        "o",
        "ers"
      ],
      [
        "o",
        "red"
      ],
      [
        "p",
        "ious"
      ],
      [
        "p",
        "ush"
      ],
      [
        "q",
        "ibl"
      ],
      [
        "r",
        "it"
      ],
      [
        "r",
        "ah"
      ],
      [
        "r",
        "ow"
      ],
      [
        "s",
        "is"
      ],
      [
        "s",
        "en"
      ],
      [
        "s",
        "at"
      ],
      [
        "s",
        "to"
      ],
      [
        "s",
        "it"
      ],
      [
        "s",
        "im"
      ],
      [
        "s",
        "il"
      ],
      [
        "s",
        "ca"
      ],
      [
        "s",
        "pl"
      ],
      [
        "s",
        "per"
      ],
      [
        "s",
        "qu"
      ],
      [
        "s",
        "urre"
      ],
      [
        "t",
        "ched"
      ],
      [
        "u",
        "ction"
      ],
      [
        "v",
        "o"
      ],
      [
        "w",
        "a"
      ],
      [
        "w",
        "al"
      ],
      [
        "w",
        "ave"
      ],
      [
        "w",
        "ings"
      ],
      [
        "w",
        "ander"
      ],
      [
        "w",
        "onder"
      ],
      [
        "y",
        "mb"
      ],
      [
        "th",
        "ous"
      ],
      [
        "th",
        "ren"
      ],
      [
        "an",
        "ct"
      ],
      [
        "re",
        "pe"
      ],
      [
        "re",
        "call"
      ],
      [
        "re",
        "vert"
      ],
      [
        "re",
        "aches"
      ],
      [
        "re",
        "tribut"
      ],
      [
        "re",
        "sol"
      ],
      [
        "in",
        "ah"
      ],
      [
        "in",
        "ation"
      ],
      [
        "in",
        "tend"
      ],
      [
        "in",
        "justice"
      ],
      [
        "is",
        "on"
      ],
      [
        "is",
        "su"
      ],
      [
        "en",
        "vy"
      ],
      [
        "or",
        "ted"
      ],
      [
        "or",
        "ig"
      ],
      [
        "at",
        "ers"
      ],
      [
        "at",
        "tend"
      ],
      [
        "on",
        "y"
      ],
      [
        "on",
        "ce"
      ],
      [
        "to",
        "day"
      ],
      [
        "of",
        "t"
      ],
      [
        "be",
        "l"
      ],
      [
        "be",
        "ings"
      ],
      [
        "be",
        "take"
      ],
      [
        "be",
        "ars"
      ],
      [
        "ha",
        "jj"
      ],
      [
        "se",
        "par"
      ],
      [
        "se",
        "cts"
      ],
      [
        "se",
        "cond"
      ],
      [
        "se",
        "mbly"
      ],
      [
        "st",
        "ones"
      ],
      [
        "wi",
        "fe"
      ],
      [
        "ar",
        "ch"
      ],
      [
        "ar",
        "mies"
      ],
      [
        "no",
        "on"
      ],
      [
        "om",
        "en"
      ],
      [
        "he",
        "ard"
      ],
      [
        "it",
        "al"
      ],
      [
        "le",
        "w"
      ],
      [
        "le",
        "ve"
      ],
      [
        "de",
        "p"
      ],
      [
        "de",
        "af"
      ],
      [
        "de",
        "ta"
      ],
      [
        "de",
        "term"
      ],
      [
        "de",
        "lay"
      ],
      [
        "for",
        "tun"
      ],
      [
        "li",
        "er"
      ],
      [
        "li",
        "ar"
      ],
      [
        "li",
        "ves"
      ],
      [
        "li",
        "cation"
      ],
      [
        "ver",
        "ted"
      ],
      [
        "nd",
        "er"
      ],
      [
        "will",
        "ing"
      ],
      [
        "will",
        "eth"
      ],
      [
        "who",
        "so"
      ],
      [
        "as",
        "p"
      ],
      [
        "as",
        "hes"
      ],
      [
        "as",
        "signed"
      ],
      [
        "as",
        "cend"
      ],
      [
        "ent",
        "r"
      ],
      [
        "ent",
        "ed"
      ],
      [
        "im",
        "in"
      ],
      [
        "ly",
        "ing"
      ],
      [
        "ce",
        "re"
      ],
      [
        "ce",
        "ase"
      ],
      [
        "we",
        "ight"
      ],
      [
        "ut",
        "iful"
      ],
      [
        "ut",
        "tered"
      ],
      [
        "fr",
        "ont"
      ],
      [
        "un",
        "seen"
      ],
      [
        "sa",
        "l"
      ],
      [
        "do",
        "g"
      ],
      [
        "do",
        "om"
      ],
      [
        "pr",
        "act"
      ],
      [
        "pr",
        "oud"
      ],
      [
        "pr",
        "ison"
      ],
      [
        "me",
        "t"
      ],
      [
        "ad",
        "ed"
      ],
      [
        "ad",
        "van"
      ],
      [
        "your",
        "self"
      ],
      [
        "op",
        "s"
      ],
      [
        "fo",
        "ol"
      ],
      [
        "ri",
        "ver"
      ],
      [
        "ri",
        "ches"
      ],
      [
        "Th",
        "y"
      ],
      [
        "ear",
        "lier"
      ],
      [
        "su",
        "ck"
      ],
      [
        "su",
        "lt"
      ],
      [
        "su",
        "peri"
      ],
      [
        "ven",
        "ge"
      ],
      [
        "pe",
        "t"
      ],
      [
        "ac",
        "ts"
      ],
      [
        "sha",
        "de"
      ],
      [
        "sha",
        "me"
      ],
      [
        "sha",
        "ck"
      ],
      [
        "am",
        "end"
      ],
      [
        "ter",
        "ror"
      ],
      [
        "ter",
        "rible"
      ],
      [
        "ul",
        "ate"
      ],
      [
        "ma",
        "les"
      ],
      [
        "there",
        "with"
      ],
      [
        "there",
        "upon"
      ],
      [
        "ab",
        "ri"
      ],
      [
        "ab",
        "und"
      ],
      [
        "ab",
        "ase"
      ],
      [
        "si",
        "x"
      ],
      [
        "si",
        "ble"
      ],
      [
        "say",
        "s"
      ],
      [
        "dis",
        "play"
      ],
      [
        "our",
        "ce"
      ],
      [
        "gu",
        "age"
      ],
      [
        "gu",
        "ile"
      ],
      [
        "fore",
        "time"
      ],
      [
        "ex",
        "alted"
      ],
      [
        "ex",
        "ample"
      ],
      [
        "own",
        "ed"
      ],
      [
        "ish",
        "ing"
      ],
      [
        "red",
        "u"
      ],
      [
        "fa",
        "ce"
      ],
      [
        "ful",
        "fil"
      ],
      [
        "fe",
        "e"
      ],
      [
        "fe",
        "ll"
      ],
      [
        "fe",
        "ct"
      ],
      [
        "fe",
        "et"
      ],
      [
        "end",
        "u"
      ],
      [
        "end",
        "ure"
      ],
      [
        "wor",
        "king"
      ],
      [
        "wor",
        "thy"
      ],
      [
        "af",
        "fair"
      ],
      [
        "ne",
        "arest"
      ],
      [
        "gr",
        "ow"
      ],
      [
        "te",
        "aches"
      ],
      [
        "pro",
        "ve"
      ],
      [
        "pro",
        "claim"
      ],
      [
        "con",
        "cl"
      ],
      [
        "con",
        "tin"
      ],
      [
        "con",
        "trol"
      ],
      [
        "ev",
        "ild"
      ],
      [
        "come",
        "th"
      ],
      [
        "good",
        "ly"
      ],
      [
        "pl",
        "aces"
      ],
      [
        "among",
        "st"
      ],
      [
        "ook",
        "ed"
      ],
      [
        "thou",
        "ght"
      ],
      [
        "den",
        "iers"
      ],
      [
        "llow",
        "ed"
      ],
      [
        "ho",
        "t"
      ],
      [
        "ap",
        "p"
      ],
      [
        "cl",
        "oud"
      ],
      [
        "per",
        "ish"
      ],
      [
        "per",
        "mission"
      ],
      [
        "per",
        "haps"
      ],
      [
        "right",
        "ly"
      ],
      [
        "est",
        "im"
      ],
      [
        "punish",
        "ed"
      ],
      [
        "wr",
        "ath"
      ],
      [
        "wr",
        "ought"
      ],
      [
        "cause",
        "s"
      ],
      [
        "can",
        "st"
      ],
      [
        "fear",
        "s"
      ],
      [
        "lo",
        "ves"
      ],
      [
        "lo",
        "ss"
      ],
      [
        "qu",
        "ick"
      ],
      [
        "ple",
        "ases"
      ],
      [
        "ser",
        "vice"
      ],
      [
        "Pr",
        "a"
      ],
      [
        "ach",
        "ieve"
      ],
      [
        "sp",
        "irit"
      ],
      [
        "except",
        "ing"
      ],
      [
        "wrong",
        "fully"
      ],
      [
        "creat",
        "ure"
      ],
      [
        "cri",
        "es"
      ],
      [
        "bring",
        "eth"
      ],
      [
        "sl",
        "ay"
      ],
      [
        "sl",
        "aves"
      ],
      [
        "where",
        "upon"
      ],
      [
        "part",
        "ner"
      ],
      [
        "ob",
        "tain"
      ],
      [
        "stand",
        "ing"
      ],
      [
        "reward",
        "s"
      ],
      [
        "comp",
        "any"
      ],
      [
        "comp",
        "ens"
      ],
      [
        "warn",
        "s"
      ],
      [
        "less",
        "ness"
      ],
      [
        "There",
        "upon"
      ],
      [
        "As",
        "suredly"
      ],
      [
        "dr",
        "owned"
      ],
      [
        "thr",
        "own"
      ],
      [
        "co",
        "ll"
      ],
      [
        "co",
        "vered"
      ],
      [
        "kind",
        "ness"
      ],
      [
        "sin",
        "cere"
      ],
      [
        "ren",
        "t"
      ],
      [
        "res",
        "pe"
      ],
      [
        "hel",
        "per"
      ],
      [
        "worship",
        "ers"
      ],
      [
        "Prophe",
        "ts"
      ],
      [
        "ak",
        "ed"
      ],
      [
        "cr",
        "imin"
      ],
      [
        "cr",
        "ooked"
      ],
      [
        "ious",
        "ly"
      ],
      [
        "wom",
        "bs"
      ],
      [
        "di",
        "v"
      ],
      [
        "set",
        "tle"
      ],
      [
        "la",
        "id"
      ],
      [
        "la",
        "bel"
      ],
      [
        "Al",
        "as"
      ],
      [
        "Al",
        "so"
      ],
      [
        "Al",
        "mighty"
      ],
      [
        "wit",
        "nes"
      ],
      [
        "form",
        "ed"
      ],
      [
        "form",
        "er"
      ],
      [
        "What",
        "ever"
      ],
      [
        "bre",
        "thren"
      ],
      [
        "Un",
        "seen"
      ],
      [
        "mis",
        "lead"
      ],
      [
        "mis",
        "chie"
      ],
      [
        "mis",
        "fortun"
      ],
      [
        "righteous",
        "ly"
      ],
      [
        "low",
        "est"
      ],
      [
        "pleas",
        "ure"
      ],
      [
        "pleas",
        "ures"
      ],
      [
        "associ",
        "ates"
      ],
      [
        "Lo",
        "t"
      ],
      [
        "destr",
        "uction"
      ],
      [
        "gre",
        "en"
      ],
      [
        "show",
        "s"
      ],
      [
        "fav",
        "or"
      ],
      [
        "repent",
        "s"
      ],
      [
        "gl",
        "or"
      ],
      [
        "pur",
        "su"
      ],
      [
        "pur",
        "ify"
      ],
      [
        "pur",
        "ifies"
      ],
      [
        "thin",
        "king"
      ],
      [
        "stri",
        "ving"
      ],
      [
        "stri",
        "kes"
      ],
      [
        "bl",
        "ind"
      ],
      [
        "rec",
        "ite"
      ],
      [
        "jud",
        "gment"
      ],
      [
        "test",
        "ify"
      ],
      [
        "bene",
        "ath"
      ],
      [
        "cor",
        "re"
      ],
      [
        "ga",
        "me"
      ],
      [
        "char",
        "ge"
      ],
      [
        "hon",
        "our"
      ],
      [
        "mon",
        "th"
      ],
      [
        "mar",
        "ks"
      ],
      [
        "mar",
        "ry"
      ],
      [
        "ru",
        "ined"
      ],
      [
        "tri",
        "ed"
      ],
      [
        "behold",
        "ers"
      ],
      [
        "group",
        "s"
      ],
      [
        "prote",
        "ction"
      ],
      [
        "firm",
        "ly"
      ],
      [
        "Gr",
        "ace"
      ],
      [
        "jo",
        "in"
      ],
      [
        "jo",
        "ined"
      ],
      [
        "inven",
        "ted"
      ],
      [
        "claim",
        "ed"
      ],
      [
        "em",
        "br"
      ],
      [
        "jinn",
        "s"
      ],
      [
        "sw",
        "allow"
      ],
      [
        "enc",
        "oun"
      ],
      [
        "essa",
        "ges"
      ],
      [
        "friend",
        "s"
      ],
      [
        "supp",
        "ort"
      ],
      [
        "supp",
        "lication"
      ],
      [
        "pen",
        "it"
      ],
      [
        "conf",
        "ess"
      ],
      [
        "pres",
        "cribed"
      ],
      [
        "preven",
        "t"
      ],
      [
        "protect",
        "or"
      ],
      [
        "tou",
        "ch"
      ],
      [
        "stre",
        "ams"
      ],
      [
        "meet",
        "ing"
      ],
      [
        "possess",
        "ed"
      ],
      [
        "success",
        "ful"
      ],
      [
        "Tru",
        "ly"
      ],
      [
        "dri",
        "ve"
      ],
      [
        "fle",
        "sh"
      ],
      [
        "spo",
        "ils"
      ],
      [
        "des",
        "ist"
      ],
      [
        "priv",
        "ate"
      ],
      [
        "adorn",
        "ed"
      ],
      [
        "exce",
        "ed"
      ],
      [
        "observe",
        "d"
      ],
      [
        "divers",
        "ion"
      ],
      [
        "affli",
        "ction"
      ],
      [
        "Fa",
        "ith"
      ],
      [
        "fur",
        "ther"
      ],
      [
        "threat",
        "en"
      ],
      [
        "threat",
        "ened"
      ],
      [
        "regard",
        "ing"
      ],
      [
        "dest",
        "ination"
      ],
      [
        "decre",
        "e"
      ],
      [
        "decre",
        "ed"
      ],
      [
        "foot",
        "steps"
      ],
      [
        "clo",
        "thing"
      ],
      [
        "intercess",
        "ion"
      ],
      [
        "excuse",
        "s"
      ],
      [
        "husband",
        "s"
      ],
      [
        "recogn",
        "iz"
      ],
      [
        "Ac",
        "quainted"
      ],
      [
        "anci",
        "ents"
      ],
      [
        "restr",
        "ained"
      ],
      [
        "intent",
        "ion"
      ],
      [
        "orph",
        "ans"
      ],
      [
        "attract",
        "ive"
      ],
      [
        "devi",
        "ated"
      ],
      [
        "idol",
        "ater"
      ],
      [
        "trave",
        "ll"
      ],
      [
        "stray",
        "ed"
      ],
      [
        "Pro",
        "claim"
      ],
      [
        "honor",
        "able"
      ],
      [
        "humili",
        "ated"
      ],
      [
        "Str",
        "aight"
      ],
      [
        "Sab",
        "bath"
      ],
      [
        "eas",
        "y"
      ],
      [
        "lad",
        "en"
      ],
      [
        "main",
        "tain"
      ],
      [
        "rans",
        "om"
      ],
      [
        "swi",
        "ft"
      ],
      [
        "wre",
        "tched"
      ],
      [
        "regul",
        "ar"
      ],
      [
        "arm",
        "pit"
      ],
      [
        "chan",
        "ged"
      ],
      [
        "alter",
        "nation"
      ],
      [
        "advers",
        "ity"
      ],
      [
        "oppress",
        "ion"
      ],
      [
        "comple",
        "te"
      ],
      [
        "sudden",
        "ly"
      ],
      [
        "exis",
        "ts"
      ],
      [
        "teach",
        "ing"
      ],
      [
        "prolong",
        "ed"
      ],
      [
        "prohi",
        "bit"
      ],
      [
        "writ",
        "ten"
      ],
      [
        "Prost",
        "rate"
      ],
      [
        "resid",
        "ence"
      ],
      [
        "accord",
        "ing"
      ],
      [
        "record",
        "ed"
      ],
      [
        "suffice",
        "th"
      ],
      [
        "stret",
        "ch"
      ],
      [
        "infidel",
        "ity"
      ],
      [
        "inherit",
        "ance"
      ],
      [
        "neglect",
        "ful"
      ],
      [
        "Bene",
        "ficent"
      ],
      [
        "Daw",
        "ud"
      ],
      [
        "Ho",
        "ly"
      ],
      [
        "King",
        "dom"
      ],
      [
        "Pen",
        "alty"
      ],
      [
        "Punish",
        "ment"
      ],
      [
        "Sp",
        "irit"
      ],
      [
        "Te",
        "ll"
      ],
      [
        "Yu",
        "suf"
      ],
      [
        "cir",
        "c"
      ],
      [
        "eaves",
        "drop"
      ],
      [
        "etern",
        "ally"
      ],
      [
        "lan",
        "guage"
      ],
      [
        "mone",
        "y"
      ],
      [
        "qibl",
        "ah"
      ],
      [
        "rit",
        "ual"
      ],
      [
        "sat",
        "is"
      ],
      [
        "spl",
        "it"
      ],
      [
        "surre",
        "nder"
      ],
      [
        "thous",
        "and"
      ],
      [
        "retribut",
        "ion"
      ],
      [
        "orig",
        "in"
      ],
      [
        "deta",
        "il"
      ],
      [
        "determ",
        "ined"
      ],
      [
        "pract",
        "ise"
      ],
      [
        "abase",
        "ment"
      ],
      [
        "evild",
        "oers"
      ],
      [
        "compens",
        "ation"
      ],
      [
        "witnes",
        "ses"
      ],
      [
        "mischie",
        "f"
      ],
      [
        "misfortun",
        "e"
      ],
      [
        "!",
        "”"
      ],
      [
        "\"",
        ";"
      ],
      [
        "\"",
        "["
      ],
      [
        "(",
        "*"
      ],
      [
        ")",
        "]"
      ],
      [
        ")",
        ".\""
      ],
      [
        "*",
        "*"
      ],
      [
        ",",
        "’"
      ],
      [
        ",",
[...]
